<unk>	0
<s>	0
</s>	0
<pad>	0
▁t	-0
he	-1
▁s	-2
▁o	-3
▁a	-4
in	-5
▁of	-6
▁the	-7
er	-8
▁m	-9
ur	-10
il	-11
nd	-12
▁w	-13
on	-14
it	-15
▁and	-16
es	-17
▁b	-18
ha	-19
▁to	-20
▁f	-21
▁A	-22
▁I	-23
ed	-24
ver	-25
or	-26
ou	-27
ilver	-28
al	-29
▁silver	-30
▁y	-31
▁c	-32
šš	-33
ga	-34
en	-35
ššur	-36
re	-37
▁p	-38
ke	-39
ar	-40
um	-41
is	-42
ina	-43
ro	-44
▁mina	-45
le	-46
gap	-47
ve	-48
▁1	-49
▁in	-50
▁<	-51
▁d	-52
▁you	-53
an	-54
ing	-55
im	-56
▁she	-57
kel	-58
▁son	-59
▁shekel	-60
ay	-61
▁ha	-62
▁for	-63
am	-64
Aššur	-65
▁h	-66
▁se	-67
▁Š	-68
at	-69
▁he	-70
ent	-71
▁shekels	-72
ab	-73
▁E	-74
▁minas	-75
rom	-76
▁g	-77
▁co	-78
▁wit	-79
us	-80
▁T	-81
id	-82
▁n	-83
▁re	-84
▁Aššur	-85
ot	-86
li	-87
nn	-88
hat	-89
ce	-90
▁me	-91
her	-92
▁by	-93
let	-94
▁my	-95
▁with	-96
our	-97
▁from	-98
▁it	-99
33	-100
ex	-101
▁be	-102
▁Enn	-103
▁2	-104
▁that	-105
se	-106
ll	-107
▁not	-108
▁your	-109
til	-110
ya	-111
ah	-112
aid	-113
ill	-114
▁Šu	-115
ad	-116
▁(	-117
▁is	-118
▁seal	-119
est	-120
▁will	-121
ablet	-122
▁as	-123
▁tablet	-124
pp	-125
▁we	-126
▁have	-127
▁K	-128
extil	-129
ess	-130
as	-131
▁Ennam	-132
tar	-133
▁W	-134
ter	-135
ān	-136
dd	-137
štar	-138
▁go	-139
ut	-140
▁ow	-141
.5	-142
la	-143
ther	-144
▁S	-145
▁-	-146
▁de	-147
▁on	-148
▁his	-149
extiles	-150
▁3	-151
Ištar	-152
ri	-153
▁P	-154
ity	-155
alim	-156
▁M	-157
ld	-158
ir	-159
▁pay	-160
ony	-161
▁an	-162
▁The	-163
uz	-164
pper	-165
ive	-166
▁br	-167
▁C	-168
▁ga	-169
▁him	-170
st	-171
66	-172
▁Ali	-173
▁u	-174
ust	-175
."	-176
▁copper	-177
▁4	-178
▁gave	-179
od	-180
▁has	-181
ahum	-182
▁th	-183
ck	-184
▁e	-185
ness	-186
▁tin	-187
▁textiles	-188
ct	-189
▁Šalim	-190
th	-191
aya	-192
▁0	-193
▁D	-194
res	-195
▁5	-196
▁l	-197
▁paid	-198
▁so	-199
▁at	-200
ake	-201
▁B	-202
▁L	-203
ion	-204
▁City	-205
ord	-206
▁10	-207
▁our	-208
▁they	-209
gh	-210
▁wh	-211
ch	-212
me	-213
ather	-214
iya	-215
if	-216
▁con	-217
ly	-218
▁sha	-219
iv	-220
▁father	-221
▁Am	-222
▁bro	-223
ra	-224
uen	-225
▁brother	-226
▁"	-227
▁H	-228
▁good	-229
▁let	-230
▁Amur	-231
▁le	-232
▁send	-233
▁ref	-234
alent	-235
ddin	-236
▁Iddin	-237
ined	-238
āni	-239
▁talent	-240
▁us	-241
Suen	-242
ss	-243
▁F	-244
▁U	-245
▁If	-246
▁To	-247
▁do	-248
bāni	-249
▁said	-250
ght	-251
ma	-252
▁was	-253
▁col	-254
▁shall	-255
▁then	-256
nt	-257
▁Puz	-258
▁whe	-259
▁or	-260
ēl	-261
▁ac	-262
▁Puzur	-263
▁refined	-264
for	-265
▁Se	-266
▁are	-267
onth	-268
▁there	-269
▁owed	-270
nder	-271
▁per	-272
▁them	-273
ilī	-274
.33	-275
cha	-276
▁inter	-277
ong	-278
.3333	-279
ta	-280
▁bring	-281
ag	-282
▁interest	-283
▁under	-284
iz	-285
▁acc	-286
▁must	-287
ought	-288
▁ca	-289
▁give	-290
ort	-291
ik	-292
lī	-293
▁r	-294
▁tr	-295
lam	-296
▁pro	-297
▁this	-298
▁ex	-299
▁Wit	-300
▁colony	-301
▁here	-302
nessed	-303
port	-304
ow	-305
ern	-306
▁sh	-307
▁st	-308
ouse	-309
wa	-310
▁don	-311
ānum	-312
▁add	-313
and	-314
▁Al	-315
▁Ab	-316
▁house	-317
out	-318
▁ent	-319
▁month	-320
▁talents	-321
ku	-322
▁brought	-323
▁Ilī	-324
cern	-325
key	-326
▁donkey	-327
▁all	-328
ate	-329
long	-330
ould	-331
cerning	-332
liya	-333
▁In	-334
▁Ku	-335
ass	-336
abum	-337
▁ab	-338
fore	-339
▁From	-340
▁Witnessed	-341
so	-342
▁its	-343
ich	-344
āb	-345
▁which	-346
▁take	-347
num	-348
▁been	-349
ēlum	-350
resent	-351
ered	-352
▁come	-353
ek	-354
ans	-355
ack	-356
▁pri	-357
▁rep	-358
▁belong	-359
et	-360
itt	-361
▁dear	-362
ey	-363
▁Kan	-364
▁As	-365
▁He	-366
▁0.5	-367
▁mer	-368
▁out	-369
ance	-370
ēp	-371
van	-372
▁My	-373
▁mercha	-374
▁say	-375
onym	-376
ok	-377
▁one	-378
ponym	-379
▁week	-380
ft	-381
▁owes	-382
▁price	-383
▁rece	-384
▁about	-385
▁goods	-386
▁before	-387
esh	-388
▁15	-389
▁Kanesh	-390
▁represent	-391
▁6	-392
uct	-393
▁Y	-394
sw	-395
rust	-396
▁answ	-397
qu	-398
▁left	-399
mal	-400
▁j	-401
ment	-402
lamma	-403
▁entrust	-404
lf	-405
nā	-406
ney	-407
▁Elamma	-408
▁tablets	-409
laim	-410
▁Man	-411
ūn	-412
▁sent	-413
▁trans	-414
aš	-415
ul	-416
▁claim	-417
▁Seal	-418
▁seiz	-419
▁concerning	-420
bt	-421
pī	-422
ue	-423
ceed	-424
pen	-425
▁G	-426
.66	-427
▁1.5	-428
.6666	-429
▁representat	-430
▁eponym	-431
▁their	-432
ub	-433
ives	-434
▁att	-435
▁belonging	-436
ere	-437
ount	-438
▁what	-439
▁accord	-440
▁donkeys	-441
▁proceed	-442
šu	-443
▁set	-444
▁answered	-445
ame	-446
te	-447
▁O	-448
ise	-449
▁am	-450
ssur	-451
ūr	-452
qēp	-453
▁when	-454
▁should	-455
▁who	-456
ak	-457
▁inv	-458
ard	-459
ear	-460
ses	-461
ṭāb	-462
▁merchant	-463
▁transport	-464
▁debt	-465
po	-466
▁Ad	-467
▁Ik	-468
▁can	-469
▁/	-470
ived	-471
▁N	-472
▁8	-473
gain	-474
▁received	-475
of	-476
▁any	-477
▁took	-478
▁0.3333	-479
ied	-480
ger	-481
▁day	-482
▁these	-483
āt	-484
▁Lā	-485
▁eponymy	-486
▁entrusted	-487
▁word	-488
▁It	-489
▁af	-490
▁la	-491
▁again	-492
▁seized	-493
▁wor	-494
textiles	-495
▁witness	-496
▁make	-497
▁qu	-498
Bēlum	-499
extile	-500
▁accordance	-501
▁k	-502
▁al	-503
very	-504
pe	-505
▁had	-506
▁We	-507
orney	-508
▁representatives	-509
▁attorney	-510
▁ar	-511
▁gold	-512
▁7	-513
str	-514
uwa	-515
ence	-516
▁against	-517
ic	-518
ers	-519
▁car	-520
struct	-521
▁invest	-522
▁12	-523
ūb	-524
▁Z	-525
art	-526
ally	-527
▁ser	-528
ge	-529
▁if	-530
▁pl	-531
▁You	-532
▁pres	-533
▁presence	-534
lear	-535
▁her	-536
▁Enna	-537
Kūb	-538
▁un	-539
▁but	-540
imitt	-541
▁brothers	-542
hen	-543
▁up	-544
ings	-545
Kūbum	-546
▁seals	-547
▁witnesses	-548
▁wr	-549
▁'	-550
pit	-551
able	-552
imittī	-553
ors	-554
ilah	-555
▁off	-556
▁clear	-557
▁lo	-558
▁sla	-559
▁20	-560
ud	-561
▁man	-562
▁Ikūn	-563
vant	-564
▁test	-565
▁servant	-566
▁har	-567
ol	-568
ase	-569
rote	-570
malik	-571
šalim	-572
▁wrote	-573
ep	-574
zu	-575
dā	-576
urn	-577
pital	-578
▁arri	-579
▁sealed	-580
▁wo	-581
ave	-582
co	-583
uš	-584
lease	-585
▁instruct	-586
pos	-587
ions	-588
▁dag	-589
imony	-590
▁slave	-591
▁dagger	-592
iš	-593
wo	-594
▁po	-595
▁Ennānum	-596
▁30	-597
▁pur	-598
urther	-599
▁letter	-600
▁An	-601
▁Also	-602
▁were	-603
▁Assur	-604
ail	-605
▁Itūr	-606
hum	-607
▁rest	-608
assī	-609
▁When	-610
▁capital	-611
▁testimony	-612
rum	-613
▁Do	-614
▁expen	-615
▁textile	-616
oth	-617
▁ag	-618
▁may	-619
▁fo	-620
▁im	-621
▁no	-622
nādā	-623
▁care	-624
▁until	-625
amaš	-626
▁Kur	-627
!"	-628
kk	-629
lā	-630
ach	-631
ade	-632
ves	-633
ated	-634
▁did	-635
▁also	-636
▁over	-637
▁rate	-638
▁wool	-639
▁proceeds	-640
ert	-641
nna	-642
utum	-643
cl	-644
ib	-645
▁poss	-646
▁purcha	-647
▁made	-648
▁account	-649
▁within	-650
di	-651
posit	-652
▁where	-653
▁v	-654
ice	-655
iss	-656
▁owe	-657
▁asse	-658
▁year	-659
▁Pilah	-660
▁saying	-661
ann	-662
king	-663
lack	-664
▁com	-665
▁res	-666
▁They	-667
▁name	-668
gether	-669
▁black	-670
▁brings	-671
un	-672
age	-673
hed	-674
ree	-675
▁deposit	-676
?)	-677
son	-678
▁Of	-679
▁due	-680
▁together	-681
self	-682
▁own	-683
▁Send	-684
▁cara	-685
▁Mannum	-686
▁investors	-687
▁weeks	-688
▁caravan	-689
>,	-690
ana	-691
ili	-692
▁Ur	-693
▁ke	-694
tain	-695
▁miss	-696
▁At	-697
▁For	-698
▁two	-699
▁sons	-700
▁Kuliya	-701
old	-702
▁Ah	-703
▁mess	-704
▁Ištar	-705
▁added	-706
▁Th	-707
▁fa	-708
▁aff	-709
▁lord	-710
▁working	-711
uy	-712
abi	-713
ist	-714
ose	-715
red	-716
tak	-717
▁gu	-718
ahšu	-719
▁mat	-720
ality	-721
ertif	-722
▁rema	-723
llil	-724
pīya	-725
vail	-726
ession	-727
▁expenses	-728
rain	-729
▁avail	-730
▁quality	-731
em	-732
ady	-733
int	-734
▁Abu	-735
▁ter	-736
▁sold	-737
▁some	-738
▁matter	-739
▁available	-740
dad	-741
the	-742
▁grain	-743
▁certif	-744
▁person	-745
.8	-746
>"	-747
333	-748
ite	-749
▁Wh	-750
Adad	-751
uruš	-752
▁ord	-753
.8333	-754
▁hear	-755
▁sack	-756
▁remain	-757
▁9	-758
▁R	-759
one	-760
▁sett	-761
▁Bēlum	-762
▁import	-763
?"	-764
rē	-765
ala	-766
▁Uṣ	-767
▁sw	-768
ckon	-769
▁Dad	-770
▁tim	-771
▁Adad	-772
▁Month	-773
lamassī	-774
▁harness	-775
▁possession	-776
),	-777
ry	-778
bēl	-779
▁Dam	-780
▁term	-781
▁very	-782
iq	-783
wn	-784
ine	-785
▁fe	-786
▁ra	-787
ilum	-788
ince	-789
▁Kuz	-790
▁tak	-791
led	-792
ved	-793
▁40	-794
▁Con	-795
▁proceedings	-796
mb	-797
▁13	-798
▁0.6666	-799
to	-800
oint	-801
▁Uṣur	-802
▁thus	-803
ckoned	-804
ac	-805
kī	-806
ife	-807
▁ob	-808
▁fir	-809
▁giv	-810
stand	-811
▁plus	-812
▁wife	-813
▁taken	-814
▁instructions	-815
ša	-816
ida	-817
gent	-818
nāya	-819
ward	-820
▁dis	-821
▁maid	-822
▁part	-823
▁certified	-824
iff	-825
▁li	-826
Anum	-827
dict	-828
▁ver	-829
▁both	-830
▁does	-831
▁keep	-832
▁leave	-833
▁months	-834
standing	-835
▁verdict	-836
▁personally	-837
▁Ṣ	-838
ced	-839
uch	-840
▁11	-841
ddum	-842
▁hin	-843
▁men	-844
▁sing	-845
▁Aluwa	-846
▁purchases	-847
▁outstanding	-848
ind	-849
▁Su	-850
▁Let	-851
▁back	-852
▁case	-853
all	-854
ore	-855
▁2.5	-856
thing	-857
▁each	-858
haddum	-859
▁given	-860
▁assemb	-861
▁single	-862
urušhaddum	-863
(?)	-864
idī	-865
pis	-866
ātum	-867
ither	-868
▁conf	-869
▁further	-870
▁assembly	-871
ant	-872
irl	-873
▁Re	-874
kuwa	-875
rabi	-876
▁spe	-877
▁lapis	-878
▁claims	-879
ie	-880
▁Lam	-881
▁ext	-882
redit	-883
▁Give	-884
▁cost	-885
▁hold	-886
▁much	-887
▁every	-888
▁Dur	-889
▁che	-890
▁fav	-891
▁tar	-892
▁sell	-893
▁stat	-894
▁well	-895
▁There	-896
use	-897
▁17	-898
▁Ak	-899
▁en	-900
clud	-901
▁buy	-902
▁those	-903
▁credit	-904
ca	-905
om	-906
▁Ṭ	-907
▁bo	-908
▁jar	-909
Assur	-910
humit	-911
taklā	-912
▁sacks	-913
▁amount	-914
▁tariff	-915
▁Durhumit	-916
▁Concerning	-917
du	-918
zuli	-919
▁bar	-920
▁Ṭāb	-921
▁Adida	-922
▁colle	-923
▁share	-924
▁lazuli	-925
).	-926
fe	-927
mah	-928
ātim	-929
▁Say	-930
▁app	-931
mahir	-932
▁Here	-933
▁stay	-934
▁Damiq	-935
▁after	-936
▁first	-937
taklāku	-938
▁servants	-939
▁deposited	-940
aw	-941
ni	-942
nds	-943
now	-944
ssu	-945
uty	-946
Anna	-947
▁ind	-948
Illil	-949
▁Amurrum	-950
▁Reckoned	-951
ani	-952
tax	-953
šam	-954
arik	-955
form	-956
llow	-957
▁Why	-958
▁sat	-959
itten	-960
▁down	-961
▁duty	-962
▁joint	-963
▁write	-964
▁missive	-965
▁written	-966
dan	-967
ley	-968
lum	-969
šum	-970
part	-971
šamš	-972
▁Issu	-973
▁pack	-974
▁either	-975
ary	-976
ire	-977
lik	-978
▁Ib	-979
turn	-980
ahšuš	-981
▁lead	-982
▁pala	-983
▁raise	-984
▁barley	-985
▁settled	-986
air	-987
ide	-988
tik	-989
▁pla	-990
Šamaš	-991
šamšī	-992
▁trad	-993
▁return	-994
▁anything	-995
mā	-996
.""	-997
isf	-998
tum	-999
āya	-1000
▁ro	-1001
mālik	-1002
tikal	-1003
▁Thus	-1004
▁time	-1005
▁Kuziz	-1006
cif	-1007
ugh	-1008
ulu	-1009
war	-1010
▁Uš	-1011
▁da	-1012
▁ir	-1013
▁su	-1014
inal	-1015
mall	-1016
pect	-1017
▁beha	-1018
▁iron	-1019
ughter	-1020
▁Urgent	-1021
cific	-1022
wardī	-1023
▁Šukk	-1024
▁follow	-1025
▁palace	-1026
▁release	-1027
▁daughter	-1028
▁Šukkutum	-1029
eed	-1030
ome	-1031
▁sa	-1032
ised	-1033
awātim	-1034
▁Iliya	-1035
▁Kurub	-1036
▁small	-1037
▁Wahšuš	-1038
▁satisf	-1039
▁En	-1040
▁sp	-1041
▁All	-1042
▁han	-1043
ndise	-1044
▁know	-1045
▁heard	-1046
▁Šamaš	-1047
▁1.3333	-1048
▁behalf	-1049
▁Wahšušana	-1050
▁merchandise	-1051
be	-1052
ip	-1053
kē	-1054
ts	-1055
lay	-1056
ons	-1057
way	-1058
▁14	-1059
▁16	-1060
▁25	-1061
▁Ir	-1062
till	-1063
▁Buz	-1064
▁Dan	-1065
▁ass	-1066
▁Take	-1067
▁guar	-1068
▁half	-1069
▁wheat	-1070
▁hinnāya	-1071
▁message	-1072
▁stating	-1073
cifically	-1074
▁Kuziziya	-1075
-<	-1076
row	-1077
▁Be	-1078
cause	-1079
ister	-1080
▁Your	-1081
▁jour	-1082
▁open	-1083
▁prom	-1084
▁delay	-1085
▁worth	-1086
▁Please	-1087
▁favour	-1088
▁journey	-1089
▁22	-1090
▁fu	-1091
ever	-1092
girl	-1093
▁And	-1094
▁hur	-1095
rišum	-1096
▁With	-1097
▁other	-1098
▁partn	-1099
aba	-1100
ama	-1101
ast	-1102
ath	-1103
irm	-1104
riya	-1105
ubur	-1106
▁bal	-1107
▁exc	-1108
▁get	-1109
▁kut	-1110
▁Ṣil	-1111
▁away	-1112
▁cont	-1113
▁offer	-1114
▁would	-1115
▁assist	-1116
▁myself	-1117
▁thereof	-1118
▁bringing	-1119
▁specifically	-1120
az	-1121
šar	-1122
▁act	-1123
educt	-1124
alliya	-1125
▁Ataya	-1126
▁inform	-1127
▁collect	-1128
>-	-1129
▁On	-1130
ages	-1131
alum	-1132
rave	-1133
ress	-1134
▁Ili	-1135
▁came	-1136
▁pass	-1137
ention	-1138
▁check	-1139
▁words	-1140
▁affair	-1141
▁arrive	-1142
▁washed	-1143
▁Aššuriš	-1144
▁accounts	-1145
ig	-1146
▁Bēl	-1147
▁Šēp	-1148
ately	-1149
other	-1150
▁into	-1151
copper	-1152
estion	-1153
textile	-1154
▁deduct	-1155
▁excise	-1156
▁confirm	-1157
▁receive	-1158
orn	-1159
ven	-1160
ight	-1161
▁Ann	-1162
▁ask	-1163
▁Šum	-1164
▁comp	-1165
▁days	-1166
▁still	-1167
▁office	-1168
▁Further	-1169
pt	-1170
kēn	-1171
ock	-1172
▁18	-1173
▁1⁄	-1174
bani	-1175
qēpum	-1176
▁bought	-1177
▁sister	-1178
▁respect	-1179
▁promised	-1180
▁question	-1181
Nūn	-1182
▁cl	-1183
Nūnu	-1184
▁Come	-1185
▁went	-1186
inalam	-1187
▁since	-1188
▁because	-1189
▁Ušinalam	-1190
'.	-1191
ith	-1192
▁Zu	-1193
▁Ahu	-1194
onsib	-1195
rment	-1196
▁thin	-1197
▁addit	-1198
▁cleared	-1199
▁follows	-1200
ads	-1201
ark	-1202
fit	-1203
ial	-1204
nam	-1205
qar	-1206
▁24	-1207
▁sc	-1208
hing	-1209
▁Elā	-1210
▁bre	-1211
▁rec	-1212
▁too	-1213
▁vot	-1214
▁way	-1215
▁wra	-1216
▁Šal	-1217
▁Anna	-1218
▁less	-1219
▁oath	-1220
▁resp	-1221
▁agree	-1222
▁extra	-1223
▁kutān	-1224
iliated	-1225
▁votive	-1226
▁arrived	-1227
▁affiliated	-1228
▁.	-1229
day	-1230
ile	-1231
ron	-1232
uza	-1233
▁50	-1234
▁Id	-1235
▁Pū	-1236
naya	-1237
▁fee	-1238
enary	-1239
ennam	-1240
ility	-1241
▁plenary	-1242
▁responsib	-1243
▁representative	-1244
atu	-1245
uba	-1246
ure	-1247
anna	-1248
▁Ikū	-1249
▁val	-1250
▁Pūšu	-1251
▁lady	-1252
▁safe	-1253
▁trave	-1254
▁wrapp	-1255
▁profit	-1256
▁Thereof	-1257
▁whether	-1258
▁without	-1259
pl	-1260
hes	-1261
ize	-1262
par	-1263
rann	-1264
sent	-1265
▁god	-1266
ation	-1267
waqar	-1268
▁show	-1269
▁order	-1270
▁years	-1271
▁includ	-1272
▁trader	-1273
▁partner	-1274
ato	-1275
sel	-1276
▁Kar	-1277
▁how	-1278
▁mem	-1279
▁now	-1280
atoli	-1281
▁fine	-1282
▁state	-1283
▁Irišum	-1284
▁Lamass	-1285
▁Anatoli	-1286
▁wrapping	-1287
▁Purušhaddum	-1288
šad	-1289
▁ru	-1290
▁Šar	-1291
utaya	-1292
▁dark	-1293
▁held	-1294
▁Annina	-1295
▁Dadiya	-1296
▁Ikūnum	-1297
▁creditor	-1298
▁attention	-1299
▁including	-1300
▁Burušhaddum	-1301
uh	-1302
ara	-1303
gry	-1304
not	-1305
land	-1306
ront	-1307
▁1⁄2	-1308
▁Pay	-1309
▁cop	-1310
orand	-1311
pilah	-1312
▁food	-1313
▁least	-1314
▁lords	-1315
▁seize	-1316
▁terms	-1317
▁0.8333	-1318
▁Sealed	-1319
parately	-1320
▁arrives	-1321
▁balance	-1322
ru	-1323
up	-1324
ūq	-1325
▁Ā	-1326
The	-1327
add	-1328
ata	-1329
cur	-1330
emūq	-1331
hara	-1332
▁sta	-1333
ustom	-1334
▁Sukk	-1335
▁even	-1336
▁Ababa	-1337
▁Since	-1338
▁refus	-1339
▁swear	-1340
▁1.6666	-1341
▁Zukuwa	-1342
▁custom	-1343
▁Bēlānum	-1344
▁guarant	-1345
▁nothing	-1346
▁staying	-1347
▁deducted	-1348
▁overland	-1349
rie	-1350
ater	-1351
come	-1352
fter	-1353
▁4.5	-1354
▁Azu	-1355
▁God	-1356
▁dec	-1357
▁lit	-1358
▁Gate	-1359
▁Suen	-1360
▁turn	-1361
selves	-1362
silver	-1363
▁Elāli	-1364
▁angry	-1365
▁apart	-1366
▁spent	-1367
▁placed	-1368
▁addition	-1369
▁memorand	-1370
▁customers	-1371
▁witnessed	-1372
▁Lamassutum	-1373
>;	-1374
Iš	-1375
ian	-1376
ood	-1377
▁45	-1378
ṣill	-1379
▁Kub	-1380
▁ear	-1381
▁sal	-1382
rannī	-1383
stock	-1384
▁Alul	-1385
▁book	-1386
▁city	-1387
▁died	-1388
▁ship	-1389
▁soon	-1390
▁among	-1391
▁today	-1392
▁mother	-1393
▁Lamassī	-1394
▁checked	-1395
▁payment	-1396
▁agreement	-1397
!'	-1398
II	-1399
oy	-1400
▁Il	-1401
anum	-1402
cond	-1403
hhum	-1404
▁7.5	-1405
▁But	-1406
isten	-1407
▁Anah	-1408
▁Kura	-1409
▁frie	-1410
▁lost	-1411
▁whom	-1412
▁Akuza	-1413
▁produ	-1414
▁assets	-1415
▁become	-1416
▁hahhum	-1417
▁indeed	-1418
▁passed	-1419
▁Šalatu	-1420
▁belongs	-1421
▁contain	-1422
fic	-1423
lem	-1424
uzi	-1425
wice	-1426
▁100	-1427
▁Nar	-1428
▁bad	-1429
▁inn	-1430
abiya	-1431
balum	-1432
enger	-1433
iliya	-1434
orrow	-1435
▁Enah	-1436
▁cons	-1437
▁hand	-1438
▁rule	-1439
Išhara	-1440
▁Abiya	-1441
▁sworn	-1442
▁second	-1443
▁Alulaya	-1444
▁wherever	-1445
▁according	-1446
▁messenger	-1447
▁satisfied	-1448
▁statement	-1449
▁questioned	-1450
.)	-1451
cc	-1452
nu	-1453
fer	-1454
▁Az	-1455
▁Um	-1456
▁Un	-1457
▁Āl	-1458
acke	-1459
with	-1460
▁Inn	-1461
▁Kūn	-1462
▁pre	-1463
hubur	-1464
▁full	-1465
▁says	-1466
ponymy	-1467
▁After	-1468
▁packe	-1469
▁ready	-1470
▁three	-1471
▁twice	-1472
▁conclud	-1473
▁Šalatuwar	-1474
".	-1475
▁Q	-1476
!""	-1477
ces	-1478
ple	-1479
rēṣ	-1480
▁21	-1481
▁El	-1482
▁Iš	-1483
hind	-1484
ribe	-1485
star	-1486
▁Tum	-1487
▁Uku	-1488
▁Šāt	-1489
emūqī	-1490
▁Ibni	-1491
▁jars	-1492
▁enter	-1493
▁guard	-1494
▁behind	-1495
▁listen	-1496
▁travel	-1497
▁delayed	-1498
▁yourself	-1499
mī	-1500
ous	-1501
▁35	-1502
▁Ag	-1503
▁ch	-1504
lier	-1505
oney	-1506
▁3.5	-1507
▁Wal	-1508
▁oil	-1509
▁Make	-1510
▁king	-1511
▁agent	-1512
▁stand	-1513
▁times	-1514
▁value	-1515
▁borrow	-1516
▁detain	-1517
▁orders	-1518
▁entered	-1519
▁obstruct	-1520
▁purchase	-1521
▁offerings	-1522
.'	-1523
aṣ	-1524
uṣ	-1525
▁V	-1526
Lab	-1527
bod	-1528
han	-1529
voy	-1530
▁Im	-1531
▁sm	-1532
alid	-1533
body	-1534
ible	-1535
ired	-1536
plur	-1537
reed	-1538
ving	-1539
ālum	-1540
▁cha	-1541
▁reg	-1542
▁Have	-1543
▁Inah	-1544
▁Lulu	-1545
▁This	-1546
▁acqu	-1547
▁reac	-1548
▁road	-1549
tained	-1550
▁Atata	-1551
▁Ennum	-1552
▁along	-1553
▁carri	-1554
▁comes	-1555
ašrannī	-1556
▁agreed	-1557
▁hurama	-1558
▁kutānu	-1559
▁expense	-1560
.1	-1561
gg	-1562
les	-1563
rad	-1564
tab	-1565
unu	-1566
▁wa	-1567
arum	-1568
bēlī	-1569
kiya	-1570
rack	-1571
vert	-1572
▁Baz	-1573
▁Gal	-1574
▁mak	-1575
▁top	-1576
urnat	-1577
▁hanu	-1578
▁Šumi	-1579
▁Seize	-1580
▁envoy	-1581
▁scribe	-1582
▁Tumliya	-1583
▁garment	-1584
▁satisfy	-1585
▁Kuburnat	-1586
▁guarantor	-1587
▁responsibility	-1588
su	-1589
ign	-1590
ird	-1591
und	-1592
▁Aš	-1593
▁Ša	-1594
ound	-1595
pped	-1596
šarr	-1597
▁Abī	-1598
▁Buy	-1599
▁Iku	-1600
▁Our	-1601
▁Tūr	-1602
▁bag	-1603
▁put	-1604
▁see	-1605
▁Zuba	-1606
▁cour	-1607
▁loan	-1608
absent	-1609
▁Uraya	-1610
▁being	-1611
▁place	-1612
▁sheep	-1613
▁wages	-1614
▁2.3333	-1615
▁Before	-1616
▁grains	-1617
▁record	-1618
▁settle	-1619
▁invalid	-1620
▁present	-1621
▁Sukkalliya	-1622
▁investment	-1623
ze	-1624
dān	-1625
ick	-1626
ies	-1627
iri	-1628
ish	-1629
zua	-1630
▁23	-1631
▁Uz	-1632
▁bl	-1633
▁ey	-1634
ased	-1635
clar	-1636
daya	-1637
kkad	-1638
rēṣī	-1639
▁Tim	-1640
▁ago	-1641
▁yet	-1642
Istar	-1643
iting	-1644
▁hire	-1645
▁long	-1646
▁meet	-1647
▁rele	-1648
▁Akkad	-1649
▁Ibaya	-1650
▁Manana	-1651
▁answer	-1652
▁booked	-1653
▁declar	-1654
▁friend	-1655
▁earlier	-1656
▁hinnaya	-1657
▁borrowed	-1658
▁Anatolian	-1659
▁instruction	-1660
dī	-1661
▁?	-1662
▁X	-1663
cus	-1664
ell	-1665
ext	-1666
iki	-1667
mut	-1668
rat	-1669
came	-1670
dder	-1671
onze	-1672
piya	-1673
reat	-1674
suit	-1675
uman	-1676
▁His	-1677
▁Kuk	-1678
▁led	-1679
▁mar	-1680
▁rem	-1681
▁str	-1682
▁sue	-1683
aliya	-1684
▁Imdī	-1685
▁Sell	-1686
▁Ummī	-1687
▁free	-1688
▁mind	-1689
▁mine	-1690
▁once	-1691
▁appro	-1692
▁cover	-1693
▁hands	-1694
▁secur	-1695
▁Kukuwa	-1696
▁anyone	-1697
▁became	-1698
▁breads	-1699
▁bronze	-1700
▁fodder	-1701
▁opened	-1702
▁Salliya	-1703
▁convert	-1704
▁fathers	-1705
▁jointly	-1706
▁reached	-1707
▁Akkadian	-1708
▁yourselves	-1709
ap	-1710
we	-1711
▁š	-1712
bil	-1713
ins	-1714
ugg	-1715
assa	-1716
cuss	-1717
ling	-1718
ppil	-1719
rama	-1720
▁Han	-1721
▁exp	-1722
▁law	-1723
▁sac	-1724
▁tri	-1725
leman	-1726
ready	-1727
▁cond	-1728
▁copy	-1729
▁girl	-1730
▁inde	-1731
▁only	-1732
▁real	-1733
▁Šuli	-1734
▁Until	-1735
▁accru	-1736
▁reach	-1737
▁while	-1738
▁3.3333	-1739
▁Innaya	-1740
▁weight	-1741
▁already	-1742
▁discuss	-1743
▁lawsuit	-1744
▁possible	-1745
▁transported	-1746
bi	-1747
You	-1748
ali	-1749
igh	-1750
ild	-1751
kul	-1752
lil	-1753
ulū	-1754
ššu	-1755
▁Sh	-1756
ante	-1757
atch	-1758
bted	-1759
ious	-1760
mina	-1761
more	-1762
pack	-1763
pose	-1764
ārum	-1765
šadu	-1766
ṣulū	-1767
▁5.5	-1768
▁Dud	-1769
▁Dān	-1770
▁Kud	-1771
▁enc	-1772
▁pat	-1773
▁why	-1774
abrat	-1775
ccess	-1776
ernal	-1777
▁Abar	-1778
▁Iliš	-1779
▁Then	-1780
▁five	-1781
▁gent	-1782
▁sale	-1783
ṣulūlī	-1784
▁asked	-1785
▁court	-1786
▁karum	-1787
▁smugg	-1788
▁Dadaya	-1789
▁report	-1790
▁refused	-1791
▁success	-1792
▁guarante	-1793
▁indebted	-1794
▁missives	-1795
▁paternal	-1796
▁released	-1797
▁security	-1798
▁whatever	-1799
▁concluded	-1800
▁separately	-1801
lu	-1802
pa	-1803
sh	-1804
▁;	-1805
666	-1806
>""	-1807
Tam	-1808
ead	-1809
uša	-1810
▁27	-1811
▁La	-1812
▁el	-1813
Tamm	-1814
iece	-1815
live	-1816
note	-1817
▁Būr	-1818
▁Per	-1819
▁Zal	-1820
.1666	-1821
Laban	-1822
girls	-1823
uring	-1824
▁12.5	-1825
▁Ewar	-1826
▁Uzua	-1827
▁bags	-1828
▁fees	-1829
▁inst	-1830
▁kept	-1831
▁loss	-1832
▁Ikupp	-1833
▁carry	-1834
▁swore	-1835
garment	-1836
▁Idnāya	-1837
▁Kurara	-1838
▁making	-1839
▁priest	-1840
▁favours	-1841
▁produce	-1842
▁confront	-1843
▁shipment	-1844
▁collected	-1845
▁instructed	-1846
It	-1847
Wh	-1848
ia	-1849
Let	-1850
Yes	-1851
due	-1852
dum	-1853
fem	-1854
lib	-1855
mur	-1856
sur	-1857
uly	-1858
uzu	-1859
▁26	-1860
▁33	-1861
▁Er	-1862
▁So	-1863
fine	-1864
illi	-1865
irik	-1866
ithe	-1867
nian	-1868
pens	-1869
▁Nim	-1870
▁hat	-1871
▁spo	-1872
▁sub	-1873
addle	-1874
ament	-1875
anced	-1876
asiya	-1877
imuša	-1878
▁Hall	-1879
▁bund	-1880
▁disp	-1881
▁else	-1882
▁head	-1883
▁lest	-1884
▁look	-1885
▁reas	-1886
▁trip	-1887
▁Šupp	-1888
othing	-1889
▁Illil	-1890
▁Uzuwa	-1891
▁alone	-1892
▁count	-1893
▁pirik	-1894
▁tithe	-1895
▁truly	-1896
▁Baziya	-1897
▁appear	-1898
▁depart	-1899
▁encour	-1900
▁extrad	-1901
▁obtain	-1902
šarrassa	-1903
▁Kudātum	-1904
▁colleag	-1905
▁remains	-1906
▁Abarnian	-1907
▁declared	-1908
▁invested	-1909
▁offering	-1910
▁pirikann	-1911
▁Ewarimuša	-1912
▁memoranda	-1913
▁successor	-1914
ax	-1915
ges	-1916
mit	-1917
nah	-1918
oes	-1919
per	-1920
▁28	-1921
▁31	-1922
assu	-1923
atum	-1924
qaya	-1925
that	-1926
them	-1927
▁Mal	-1928
▁One	-1929
▁Waš	-1930
▁Zik	-1931
▁cor	-1932
▁est	-1933
orter	-1934
othes	-1935
posal	-1936
ument	-1937
▁22.5	-1938
▁What	-1939
▁deli	-1940
▁fail	-1941
▁many	-1942
▁next	-1943
▁same	-1944
▁Ṣill	-1945
muttab	-1946
▁Adada	-1947
▁Elaya	-1948
▁Mannu	-1949
▁Nimar	-1950
▁Track	-1951
▁Tūram	-1952
▁Zalpa	-1953
▁blood	-1954
▁front	-1955
▁funds	-1956
▁holds	-1957
▁sacri	-1958
▁worry	-1959
▁yours	-1960
eponymy	-1961
▁Narrow	-1962
▁Should	-1963
▁during	-1964
▁losses	-1965
▁packet	-1966
▁reason	-1967
▁saddle	-1968
▁strong	-1969
▁things	-1970
▁kutānus	-1971
▁package	-1972
▁Ṣilliya	-1973
muttabbil	-1974
▁amounted	-1975
▁obtained	-1976
▁reckoned	-1977
▁returned	-1978
▁transfer	-1979
▁Separately	-1980
▁memorandum	-1981
▁responsible	-1982
>.	-1983
He	-1984
If	-1985
el	-1986
gs	-1987
lo	-1988
mū	-1989
ada	-1990
con	-1991
ect	-1992
llu	-1993
nim	-1994
ots	-1995
tal	-1996
tin	-1997
▁19	-1998
▁37	-1999
▁42	-2000
▁Li	-2001
▁Te	-2002
▁ef	-2003
▁ri	-2004
amma	-2005
asis	-2006
ched	-2007
here	-2008
iaya	-2009
icul	-2010
ield	-2011
laku	-2012
mūta	-2013
ract	-2014
ried	-2015
ring	-2016
room	-2017
ures	-2018
wood	-2019
▁Now	-2020
▁Sad	-2021
▁bel	-2022
▁jud	-2023
▁lev	-2024
▁shi	-2025
▁tax	-2026
icial	-2027
inaya	-2028
money	-2029
pport	-2030
▁10.5	-2031
▁fact	-2032
▁like	-2033
▁pins	-2034
▁pled	-2035
▁prov	-2036
▁reli	-2037
anātum	-2038
▁Kulum	-2039
▁Mamma	-2040
▁Waldi	-2041
▁basis	-2042
▁cheat	-2043
▁could	-2044
▁great	-2045
▁recie	-2046
▁regul	-2047
▁shoes	-2048
▁trust	-2049
▁Šumma	-2050
Tammuzi	-2051
taklaku	-2052
▁Amriya	-2053
▁Idnaya	-2054
▁envoys	-2055
▁formal	-2056
mūtappil	-2057
▁Damqaya	-2058
▁clothes	-2059
▁complet	-2060
▁letters	-2061
▁missing	-2062
▁shipped	-2063
▁writing	-2064
▁approach	-2065
▁balanced	-2066
▁clothing	-2067
▁disposal	-2068
▁reliable	-2069
▁container	-2070
▁testament	-2071
):	-2072
>:	-2073
ff	-2074
na	-2075
rī	-2076
Why	-2077
ash	-2078
aṣi	-2079
dam	-2080
eep	-2081
ged	-2082
ila	-2083
ppy	-2084
rap	-2085
sed	-2086
she	-2087
ued	-2088
▁36	-2089
▁46	-2090
▁55	-2091
▁Lu	-2092
▁Tu	-2093
allu	-2094
amas	-2095
ider	-2096
ikku	-2097
ises	-2098
oric	-2099
ough	-2100
side	-2101
▁Tuh	-2102
▁Two	-2103
▁lot	-2104
▁sur	-2105
▁tem	-2106
damiq	-2107
libbi	-2108
massu	-2109
vious	-2110
wards	-2111
▁Eniš	-2112
▁Maṣi	-2113
▁fire	-2114
▁firm	-2115
▁four	-2116
▁goes	-2117
▁mete	-2118
▁need	-2119
▁ones	-2120
▁stri	-2121
▁want	-2122
hattum	-2123
▁Agiya	-2124
▁Buruš	-2125
▁Lullu	-2126
▁Timel	-2127
▁allow	-2128
▁bread	-2129
▁child	-2130
▁going	-2131
▁harsh	-2132
▁later	-2133
▁loans	-2134
▁store	-2135
▁yield	-2136
contain	-2137
kulānum	-2138
▁Asānum	-2139
▁Erišum	-2140
▁Peruwa	-2141
▁contin	-2142
▁copies	-2143
▁decide	-2144
▁please	-2145
▁raises	-2146
▁temple	-2147
▁Galdaya	-2148
▁Karriya	-2149
▁accrued	-2150
▁acquire	-2151
▁appoint	-2152
▁compens	-2153
▁conduct	-2154
▁express	-2155
▁himself	-2156
▁overdue	-2157
▁refuses	-2158
▁meteoric	-2159
▁gentleman	-2160
▁harnessor	-2161
▁Burušhattum	-2162
As	-2163
Do	-2164
Se	-2165
ka	-2166
pā	-2167
hur	-2168
kur	-2169
oub	-2170
pri	-2171
ren	-2172
sar	-2173
▁1:	-2174
▁32	-2175
▁48	-2176
▁ne	-2177
▁ur	-2178
assi	-2179
fect	-2180
nded	-2181
orns	-2182
oths	-2183
▁6.5	-2184
▁Alp	-2185
▁Bab	-2186
▁Lib	-2187
▁Luh	-2188
▁May	-2189
▁Nab	-2190
▁min	-2191
▁nor	-2192
▁tre	-2193
▁wis	-2194
ision	-2195
itaya	-2196
nimrī	-2197
onial	-2198
pālil	-2199
ṣilli	-2200
▁Išme	-2201
▁dema	-2202
▁gods	-2203
▁litu	-2204
▁more	-2205
▁stor	-2206
▁wait	-2207
cument	-2208
haniya	-2209
▁Later	-2210
▁Lipit	-2211
▁alive	-2212
▁favor	-2213
▁indic	-2214
▁lives	-2215
▁spoke	-2216
▁third	-2217
ignment	-2218
lamassi	-2219
▁acorns	-2220
▁effect	-2221
▁levied	-2222
▁submit	-2223
▁urgent	-2224
▁Eponymy	-2225
▁Tuhpiya	-2226
▁affairs	-2227
▁offered	-2228
▁packets	-2229
▁returns	-2230
▁children	-2231
▁colonial	-2232
▁garments	-2233
▁official	-2234
▁partners	-2235
▁previous	-2236
▁produced	-2237
▁saddlecl	-2238
▁encourage	-2239
▁following	-2240
▁pirikannus	-2241
▁consignment	-2242
);	-2243
00	-2244
cy	-2245
do	-2246
ix	-2247
ki	-2248
ne	-2249
pi	-2250
ād	-2251
ši	-2252
▁:	-2253
akn	-2254
app	-2255
gar	-2256
lit	-2257
raw	-2258
ser	-2259
▁Iz	-2260
▁Qa	-2261
▁Wr	-2262
Give	-2263
When	-2264
araš	-2265
erty	-2266
fice	-2267
from	-2268
ones	-2269
▁Anu	-2270
▁Ask	-2271
▁Idi	-2272
▁Luz	-2273
▁Set	-2274
▁VII	-2275
▁ann	-2276
▁box	-2277
allim	-2278
asure	-2279
ellat	-2280
numan	-2281
perty	-2282
piece	-2283
serve	-2284
▁Adud	-2285
▁Luzi	-2286
▁able	-2287
▁char	-2288
▁eyes	-2289
▁fall	-2290
▁gone	-2291
▁remo	-2292
▁save	-2293
▁sick	-2294
▁than	-2295
aṣānum	-2296
icular	-2297
ressed	-2298
shekel	-2299
▁Abaya	-2300
▁Daraš	-2301
▁While	-2302
▁Write	-2303
▁final	-2304
▁money	-2305
▁valid	-2306
▁weigh	-2307
▁šikku	-2308
▁Ṣilli	-2309
▁Sadaya	-2310
▁Within	-2311
▁cannot	-2312
▁compla	-2313
▁export	-2314
▁liable	-2315
▁safely	-2316
▁Ṣilulu	-2317
▁deliver	-2318
▁hearing	-2319
▁instead	-2320
▁mention	-2321
▁observe	-2322
▁traders	-2323
▁treated	-2324
▁Kulumaya	-2325
▁contract	-2326
▁decision	-2327
▁firewood	-2328
▁property	-2329
▁Timelkiya	-2330
▁Wašhaniya	-2331
▁continued	-2332
▁huraṣānum	-2333
▁containers	-2334
▁particular	-2335
▁profitable	-2336
▁regulation	-2337
We	-2338
āš	-2339
Abe	-2340
att	-2341
ior	-2342
ken	-2343
men	-2344
mpt	-2345
ula	-2346
wor	-2347
ūlu	-2348
▁41	-2349
▁Is	-2350
▁ev	-2351
▁pe	-2352
Abeh	-2353
Amur	-2354
Come	-2355
Your	-2356
airs	-2357
aves	-2358
gold	-2359
ject	-2360
lama	-2361
lled	-2362
nada	-2363
over	-2364
road	-2365
used	-2366
vice	-2367
ying	-2368
▁8.5	-2369
▁Bur	-2370
▁Did	-2371
▁Kap	-2372
▁Tal	-2373
▁Who	-2374
▁Zuz	-2375
▁cut	-2376
▁eye	-2377
▁got	-2378
▁hou	-2379
▁nat	-2380
▁rob	-2381
▁ten	-2382
▁Šul	-2383
Hubur	-2384
aknak	-2385
ester	-2386
happy	-2387
house	-2388
inary	-2389
ittle	-2390
nding	-2391
nutum	-2392
ouble	-2393
respo	-2394
stone	-2395
unity	-2396
▁That	-2397
▁dead	-2398
▁gate	-2399
▁hann	-2400
▁just	-2401
▁last	-2402
▁quar	-2403
nesses	-2404
weight	-2405
▁Ulama	-2406
▁costs	-2407
▁defic	-2408
▁incur	-2409
▁leads	-2410
▁minus	-2411
▁total	-2412
capital	-2413
▁3.8333	-2414
▁4.3333	-2415
▁Buziya	-2416
▁Luzina	-2417
▁Tutaya	-2418
▁Zikiki	-2419
▁absent	-2420
▁apiece	-2421
▁bundle	-2422
▁gather	-2423
▁hattum	-2424
▁having	-2425
▁houses	-2426
▁judges	-2427
▁little	-2428
▁opport	-2429
▁others	-2430
▁pledge	-2431
▁slaves	-2432
▁stones	-2433
▁wishes	-2434
▁Ṣilūlu	-2435
▁carries	-2436
▁certify	-2437
▁contest	-2438
▁dispose	-2439
▁leading	-2440
▁ordered	-2441
▁service	-2442
▁sickles	-2443
▁someone	-2444
▁station	-2445
▁unhappy	-2446
▁Šalimma	-2447
▁Buzutaya	-2448
▁Ikuppiya	-2449
▁Kannutum	-2450
▁acquired	-2451
▁correspo	-2452
▁dispatch	-2453
▁extradit	-2454
▁investor	-2455
▁ordinary	-2456
▁somebody	-2457
▁colleague	-2458
▁confirmed	-2459
▁converted	-2460
▁smuggling	-2461
▁Furthermore	-2462
▁opportunity	-2463
--	-2464
In	-2465
bu	-2466
ec	-2467
nī	-2468
tī	-2469
ua	-2470
uq	-2471
And	-2472
adu	-2473
gan	-2474
him	-2475
ini	-2476
niš	-2477
oun	-2478
pay	-2479
ran	-2480
ret	-2481
rin	-2482
ted	-2483
tim	-2484
▁34	-2485
▁Bē	-2486
▁es	-2487
gard	-2488
ided	-2489
ides	-2490
lian	-2491
murn	-2492
raid	-2493
ross	-2494
sarr	-2495
siya	-2496
sulu	-2497
ters	-2498
what	-2499
ššūr	-2500
▁1⁄3	-2501
▁Acc	-2502
▁Ass	-2503
▁Bal	-2504
▁Get	-2505
▁Nan	-2506
▁Sus	-2507
▁den	-2508
▁wag	-2509
▁war	-2510
adiya	-2511
amtum	-2512
herit	-2513
ident	-2514
inter	-2515
kurub	-2516
murna	-2517
ndeed	-2518
packs	-2519
salim	-2520
upiya	-2521
▁Dada	-2522
▁Galg	-2523
▁Karw	-2524
▁Keep	-2525
▁More	-2526
▁Nabi	-2527
▁Usur	-2528
▁bear	-2529
▁best	-2530
▁diff	-2531
▁face	-2532
▁fear	-2533
▁land	-2534
▁liab	-2535
▁sear	-2536
▁star	-2537
▁told	-2538
▁wish	-2539
inātum	-2540
labrat	-2541
nelian	-2542
ording	-2543
porter	-2544
sululi	-2545
▁Abuwa	-2546
▁Alili	-2547
▁Belum	-2548
▁Ennān	-2549
▁Samas	-2550
▁beads	-2551
▁gives	-2552
▁hired	-2553
▁never	-2554
▁pairs	-2555
▁scrap	-2556
▁speak	-2557
cuments	-2558
▁2.6666	-2559
▁Bēliya	-2560
▁Dudiki	-2561
▁Talhat	-2562
▁afraid	-2563
▁agents	-2564
▁broken	-2565
▁hanunu	-2566
▁refuse	-2567
▁regard	-2568
▁turned	-2569
▁Šuppun	-2570
sarrātim	-2571
▁Aninaya	-2572
▁Anupiya	-2573
▁Dadānum	-2574
▁Ilabrat	-2575
▁Kuzallu	-2576
▁inherit	-2577
▁married	-2578
▁matters	-2579
▁trading	-2580
documents	-2581
▁Moreover	-2582
▁conclude	-2583
▁consider	-2584
▁hanaknak	-2585
▁According	-2586
▁Allanātum	-2587
▁Galgaliya	-2588
▁additions	-2589
▁carnelian	-2590
▁liability	-2591
▁Anatolians	-2592
▁accounting	-2593
▁guaranteed	-2594
▁guarantors	-2595
▁harnessors	-2596
▁transporter	-2597
▁representing	-2598
▁saddlecloths	-2599
▁corresponding	-2600
",	-2601
('	-2602
Be	-2603
eh	-2604
sa	-2605
wē	-2606
⁄6	-2607
Enn	-2608
abl	-2609
are	-2610
bur	-2611
but	-2612
edi	-2613
ety	-2614
got	-2615
gra	-2616
idi	-2617
ikk	-2618
išk	-2619
lee	-2620
man	-2621
rew	-2622
rol	-2623
wit	-2624
ziz	-2625
▁57	-2626
▁Ar	-2627
▁IV	-2628
▁PN	-2629
(?),	-2630
ails	-2631
arad	-2632
baya	-2633
hold	-2634
keep	-2635
kēnā	-2636
mpty	-2637
ning	-2638
oday	-2639
pend	-2640
test	-2641
vest	-2642
īšar	-2643
ṣulu	-2644
▁5⁄6	-2645
▁Buṣ	-2646
▁III	-2647
▁Mar	-2648
▁Men	-2649
▁Tiš	-2650
▁Wat	-2651
▁big	-2652
▁cup	-2653
▁dra	-2654
▁ins	-2655
▁met	-2656
▁pie	-2657
▁sit	-2658
abaya	-2659
allum	-2660
antly	-2661
ickly	-2662
ighed	-2663
iling	-2664
llers	-2665
worth	-2666
ššara	-2667
▁Balṭ	-2668
▁Ilšu	-2669
▁Kunn	-2670
▁Qard	-2671
▁asks	-2672
▁beer	-2673
▁bind	-2674
▁boss	-2675
▁drew	-2676
▁ever	-2677
▁flee	-2678
▁pots	-2679
▁soft	-2680
▁youn	-2681
asures	-2682
ilkiya	-2683
though	-2684
ulated	-2685
ṣululī	-2686
▁Aguwa	-2687
▁Bring	-2688
▁Izziz	-2689
▁Lalum	-2690
▁Salim	-2691
▁Warad	-2692
▁death	-2693
▁dress	-2694
▁heart	-2695
▁hubur	-2696
▁keeps	-2697
▁litre	-2698
▁loose	-2699
▁means	-2700
▁nails	-2701
▁resul	-2702
▁right	-2703
▁saved	-2704
▁shown	-2705
▁split	-2706
▁women	-2707
Amurrum	-2708
Ilabrat	-2709
formity	-2710
keeping	-2711
kēnātim	-2712
▁1.8333	-2713
▁4.6666	-2714
▁Buzuwa	-2715
▁Hanana	-2716
▁Innāya	-2717
▁Kutaya	-2718
▁Watrum	-2719
▁establ	-2720
▁exceed	-2721
▁handed	-2722
▁litres	-2723
▁native	-2724
▁packer	-2725
▁pieces	-2726
▁quarre	-2727
▁really	-2728
▁render	-2729
▁shares	-2730
▁Šarrum	-2731
▁16.6666	-2732
▁Kapsiya	-2733
▁Kuššara	-2734
▁carried	-2735
▁concern	-2736
▁credits	-2737
▁fleeces	-2738
▁friends	-2739
▁harvest	-2740
▁packing	-2741
▁quickly	-2742
▁towards	-2743
▁trouble	-2744
▁weighed	-2745
container	-2746
▁Tišmurna	-2747
▁Uṣurānum	-2748
▁informed	-2749
▁messages	-2750
▁packages	-2751
▁Timilkiya	-2752
▁allowance	-2753
▁appointed	-2754
▁departure	-2755
▁indicated	-2756
▁sacrifice	-2757
▁Kukkulānum	-2758
▁additional	-2759
▁completion	-2760
▁conformity	-2761
▁confronted	-2762
▁everything	-2763
▁furthermore	-2764
▁undergarment	-2765
:1	-2766
bē	-2767
ci	-2768
ām	-2769
)."	-2770
Dag	-2771
Wit	-2772
aka	-2773
alk	-2774
der	-2775
dug	-2776
dūr	-2777
eal	-2778
har	-2779
ief	-2780
kua	-2781
pro	-2782
rue	-2783
uma	-2784
utu	-2785
yri	-2786
▁43	-2787
▁44	-2788
▁51	-2789
▁53	-2790
▁56	-2791
▁By	-2792
▁Go	-2793
▁No	-2794
▁Ta	-2795
▁XI	-2796
▁pr	-2797
(?).	-2798
also	-2799
arge	-2800
dāku	-2801
dūrī	-2802
empt	-2803
ffer	-2804
fort	-2805
ilšu	-2806
inum	-2807
irah	-2808
kian	-2809
maya	-2810
nuid	-2811
open	-2812
otal	-2813
oute	-2814
taya	-2815
then	-2816
your	-2817
īnum	-2818
▁Dum	-2819
▁Kat	-2820
▁Nak	-2821
▁Nāb	-2822
▁Pan	-2823
▁Suk	-2824
▁cau	-2825
▁des	-2826
▁hus	-2827
▁imm	-2828
▁lay	-2829
▁ple	-2830
▁yes	-2831
Dagān	-2832
Labān	-2833
anger	-2834
atiya	-2835
cover	-2836
dugul	-2837
eated	-2838
grand	-2839
itted	-2840
offic	-2841
rance	-2842
takil	-2843
there	-2844
third	-2845
uliya	-2846
uzaya	-2847
where	-2848
yrian	-2849
▁Dudu	-2850
▁Kula	-2851
▁Over	-2852
▁Tega	-2853
▁Yaya	-2854
▁belt	-2855
▁bewa	-2856
▁cash	-2857
▁done	-2858
▁drin	-2859
▁happ	-2860
▁heir	-2861
▁laid	-2862
▁load	-2863
▁reed	-2864
▁scar	-2865
▁seek	-2866
▁supp	-2867
▁used	-2868
wēdāku	-2869
▁Aduda	-2870
▁Akiya	-2871
▁Elālī	-2872
▁Their	-2873
▁These	-2874
▁Today	-2875
▁Total	-2876
▁const	-2877
▁cross	-2878
▁empty	-2879
▁force	-2880
▁large	-2881
▁noted	-2882
▁prove	-2883
▁purif	-2884
▁robes	-2885
▁route	-2886
▁Šulup	-2887
▁5.3333	-2888
▁6.3333	-2889
▁6.6666	-2890
▁Alpilī	-2891
▁Anīnum	-2892
▁Asanum	-2893
▁Irnuid	-2894
▁Kasiya	-2895
▁Kuziya	-2896
▁Menaya	-2897
▁Panaka	-2898
▁Tablet	-2899
▁Yester	-2900
▁abroad	-2901
▁caused	-2902
▁compan	-2903
▁expend	-2904
▁strict	-2905
▁wagons	-2906
official	-2907
▁10.3333	-2908
▁15.3333	-2909
▁Azuzaya	-2910
▁Ennanum	-2911
▁Libbaya	-2912
▁address	-2913
▁another	-2914
▁anybody	-2915
▁control	-2916
▁deficit	-2917
▁inspect	-2918
▁leather	-2919
▁promise	-2920
▁protest	-2921
▁provide	-2922
▁quarrel	-2923
▁realise	-2924
▁sending	-2925
▁thought	-2926
▁waiting	-2927
Witnessed	-2928
▁Assyrian	-2929
▁Tegarama	-2930
▁assisted	-2931
▁capitals	-2932
▁detained	-2933
▁exceeded	-2934
▁incurred	-2935
▁recieved	-2936
▁register	-2937
▁repeated	-2938
▁sacrific	-2939
▁Yesterday	-2940
▁bewailing	-2941
▁guarantee	-2942
▁harnesser	-2943
▁priestess	-2944
▁purchased	-2945
▁remainder	-2946
▁compensate	-2947
▁constantly	-2948
▁inheritors	-2949
▁transferred	-2950
',	-2951
>)	-2952
>?	-2953
At	-2954
Ti	-2955
av	-2956
hu	-2957
zi	-2958
For	-2959
abī	-2960
act	-2961
als	-2962
ean	-2963
ero	-2964
ift	-2965
ilt	-2966
kāš	-2967
ook	-2968
tle	-2969
ues	-2970
uni	-2971
uqi	-2972
val	-2973
▁29	-2974
▁80	-2975
▁Ap	-2976
▁GA	-2977
▁II	-2978
▁IX	-2979
▁Ka	-2980
Nunu	-2981
Send	-2982
Zuzu	-2983
agan	-2984
awin	-2985
band	-2986
bēli	-2987
cept	-2988
chan	-2989
duce	-2990
ecut	-2991
ging	-2992
iled	-2993
ilip	-2994
lace	-2995
lect	-2996
lied	-2997
miss	-2998
ople	-2999
outh	-3000
quiv	-3001
this	-3002
ting	-3003
▁Abi	-3004
▁Alā	-3005
▁Bel	-3006
▁Dād	-3007
▁Eme	-3008
▁Had	-3009
▁How	-3010
▁Kal	-3011
▁Kul	-3012
▁Lab	-3013
▁Nah	-3014
▁Not	-3015
▁Pro	-3016
▁Sab	-3017
▁She	-3018
▁Sub	-3019
▁Tar	-3020
▁ant	-3021
▁arg	-3022
▁awa	-3023
▁bur	-3024
▁nam	-3025
▁non	-3026
▁old	-3027
▁rul	-3028
▁sad	-3029
▁sec	-3030
▁sil	-3031
▁use	-3032
Belum	-3033
There	-3034
again	-3035
aziya	-3036
emuqi	-3037
emūqi	-3038
eroom	-3039
iaššu	-3040
ilišu	-3041
iness	-3042
kāšid	-3043
lemen	-3044
nārum	-3045
ority	-3046
ranni	-3047
river	-3048
still	-3049
tārum	-3050
āriya	-3051
▁11.5	-3052
▁13.5	-3053
▁17.5	-3054
▁Akus	-3055
▁Ašdu	-3056
▁Elal	-3057
▁Erra	-3058
▁gift	-3059
▁harm	-3060
▁heed	-3061
▁high	-3062
▁inns	-3063
▁plot	-3064
▁poor	-3065
▁pray	-3066
▁read	-3067
▁room	-3068
▁salt	-3069
▁sikk	-3070
▁stip	-3071
▁talk	-3072
▁town	-3073
▁true	-3074
▁vill	-3075
addiya	-3076
itting	-3077
payers	-3078
▁Adaya	-3079
▁Apart	-3080
▁Balṭu	-3081
▁Bazaz	-3082
▁Bēlat	-3083
▁Clear	-3084
▁Eddin	-3085
▁Ellil	-3086
▁Luhuz	-3087
▁Narām	-3088
▁Tawin	-3089
▁Three	-3090
▁anger	-3091
▁aside	-3092
▁bound	-3093
▁broke	-3094
▁cance	-3095
▁chair	-3096
▁close	-3097
▁drink	-3098
▁hides	-3099
▁knows	-3100
▁kutan	-3101
▁makes	-3102
▁mouth	-3103
▁needs	-3104
▁piece	-3105
▁rings	-3106
▁scarf	-3107
▁short	-3108
▁smith	-3109
▁spend	-3110
▁stood	-3111
▁suing	-3112
▁whose	-3113
ekallim	-3114
emption	-3115
measure	-3116
mission	-3117
uṣrannī	-3118
▁8.3333	-3119
▁8.6666	-3120
▁Abiaya	-3121
▁Dādiya	-3122
▁Ikuppi	-3123
▁Indeed	-3124
▁Kitaya	-3125
▁Kubiya	-3126
▁Nakile	-3127
▁Zuzuwa	-3128
▁action	-3129
▁around	-3130
▁buying	-3131
▁condit	-3132
▁differ	-3133
▁exchan	-3134
▁execut	-3135
▁fallen	-3136
▁haršum	-3137
▁itself	-3138
▁packed	-3139
▁people	-3140
▁porter	-3141
▁proved	-3142
▁raised	-3143
▁stayed	-3144
▁Šudaya	-3145
▁Amuraya	-3146
▁Anninum	-3147
▁Azutaya	-3148
▁Because	-3149
▁Izzizam	-3150
▁accrues	-3151
▁bundles	-3152
▁charged	-3153
▁counted	-3154
▁hannaya	-3155
▁holding	-3156
▁husband	-3157
▁neither	-3158
▁realize	-3159
▁recieve	-3160
quivalent	-3161
witnesses	-3162
▁Akusānum	-3163
▁Enišārum	-3164
▁Sabasiya	-3165
▁Tawiniya	-3166
▁antimony	-3167
▁carriage	-3168
▁complete	-3169
▁entrance	-3170
▁expendit	-3171
▁protests	-3172
▁villages	-3173
▁weighing	-3174
▁Eništārum	-3175
▁companion	-3176
▁complaint	-3177
▁conducted	-3178
▁establish	-3179
▁extradite	-3180
▁mentioned	-3181
▁storeroom	-3182
▁therefore	-3183
▁colleagues	-3184
▁repeatedly	-3185
▁stipulated	-3186
▁themselves	-3187
▁travellers	-3188
▁haršumnuman	-3189
▁invalidated	-3190
?'	-3191
?.	-3192
Ea	-3193
Go	-3194
Sī	-3195
Zk	-3196
by	-3197
os	-3198
ti	-3199
ty	-3200
za	-3201
ṣm	-3202
"."	-3203
0.5	-3204
Ilī	-3205
Sīn	-3206
alf	-3207
arn	-3208
avy	-3209
azi	-3210
ber	-3211
bit	-3212
com	-3213
fee	-3214
gat	-3215
gin	-3216
ket	-3217
mum	-3218
pes	-3219
ppā	-3220
qum	-3221
ras	-3222
sha	-3223
udu	-3224
uha	-3225
uth	-3226
wan	-3227
wed	-3228
zur	-3229
šād	-3230
ṭab	-3231
▁"<	-3232
▁47	-3233
▁52	-3234
▁60	-3235
▁75	-3236
▁Ed	-3237
▁Us	-3238
▁bu	-3239
▁gr	-3240
▁ma	-3241
▁ox	-3242
Have	-3243
Seal	-3244
aged	-3245
ches	-3246
chie	-3247
dust	-3248
good	-3249
goti	-3250
hata	-3251
iles	-3252
imum	-3253
itum	-3254
mely	-3255
nīšu	-3256
only	-3257
paid	-3258
rect	-3259
will	-3260
ītum	-3261
šini	-3262
ṣmid	-3263
▁3--	-3264
▁Aku	-3265
▁Any	-3266
▁Col	-3267
▁Dal	-3268
▁Don	-3269
▁IZk	-3270
▁Kus	-3271
▁Kūb	-3272
▁Lat	-3273
▁Lip	-3274
▁Mah	-3275
▁Neh	-3276
▁Tur	-3277
▁XII	-3278
▁bus	-3279
▁dro	-3280
▁eat	-3281
▁fet	-3282
▁gre	-3283
▁hal	-3284
▁hem	-3285
▁inc	-3286
▁pot	-3287
▁run	-3288
▁sum	-3289
Dagan	-3290
Ennam	-3291
Nirah	-3292
ashly	-3293
indic	-3294
ining	-3295
ioned	-3296
iries	-3297
itled	-3298
mīšar	-3299
share	-3300
stead	-3301
tappā	-3302
ually	-3303
urely	-3304
utāya	-3305
šadue	-3306
▁14.5	-3307
▁Arši	-3308
▁Azua	-3309
▁Buzi	-3310
▁Hanu	-3311
▁Look	-3312
▁Mula	-3313
▁Once	-3314
▁VIII	-3315
▁auth	-3316
▁comm	-3317
▁deal	-3318
▁dest	-3319
▁dust	-3320
▁earn	-3321
▁feed	-3322
▁fund	-3323
▁hani	-3324
▁kill	-3325
▁lent	-3326
▁live	-3327
▁meat	-3328
▁note	-3329
▁padd	-3330
▁prec	-3331
▁rent	-3332
▁robe	-3333
▁seen	-3334
▁tell	-3335
aduwar	-3336
annaya	-3337
appear	-3338
atched	-3339
ations	-3340
attiya	-3341
cially	-3342
fortun	-3343
gsters	-3344
handed	-3345
imitti	-3346
lement	-3347
ntrust	-3348
opened	-3349
plural	-3350
remely	-3351
▁Aliya	-3352
▁Anuli	-3353
▁Azuza	-3354
▁Aššūr	-3355
▁Elalī	-3356
▁Ememe	-3357
▁Etaya	-3358
▁Istar	-3359
▁Iṣmid	-3360
▁Trave	-3361
▁achie	-3362
▁acted	-3363
▁await	-3364
▁badly	-3365
▁break	-3366
▁cauld	-3367
▁chief	-3368
▁debts	-3369
▁found	-3370
▁guest	-3371
▁hanna	-3372
▁heavy	-3373
▁loads	-3374
▁night	-3375
▁olive	-3376
▁plead	-3377
▁rests	-3378
▁ropes	-3379
▁sever	-3380
▁straw	-3381
▁wares	-3382
▁water	-3383
ckoning	-3384
covered	-3385
gotiate	-3386
quiries	-3387
šarrāni	-3388
▁5.6666	-3389
▁6.8333	-3390
▁Alpili	-3391
▁Dadāya	-3392
▁Inform	-3393
▁Ladiya	-3394
▁Mahhur	-3395
▁Susāya	-3396
▁Ušhata	-3397
▁accrue	-3398
▁appeal	-3399
▁asking	-3400
▁coming	-3401
▁consum	-3402
▁estate	-3403
▁extras	-3404
▁giving	-3405
▁golden	-3406
▁immedi	-3407
▁impose	-3408
▁inside	-3409
▁leaves	-3410
▁living	-3411
▁loaves	-3412
▁longer	-3413
▁market	-3414
▁nobody	-3415
▁rashly	-3416
▁reject	-3417
▁remove	-3418
▁scarfs	-3419
▁search	-3420
▁stands	-3421
▁surety	-3422
▁vindic	-3423
▁Šallim	-3424
▁Ṣilluš	-3425
▁Ababaya	-3426
▁Collect	-3427
▁Instead	-3428
▁Karwaya	-3429
▁Karšini	-3430
▁Nehriya	-3431
▁Qardaya	-3432
▁Uṣāriya	-3433
▁amounts	-3434
▁arrival	-3435
▁claimed	-3436
▁correct	-3437
▁country	-3438
▁dropped	-3439
▁measure	-3440
▁outside	-3441
▁paddock	-3442
▁removed	-3443
▁travels	-3444
▁whoever	-3445
gentleman	-3446
▁Anatolia	-3447
▁Bazazaya	-3448
▁Ennāniya	-3449
▁business	-3450
▁concerns	-3451
▁deposits	-3452
▁exchange	-3453
▁hireling	-3454
▁measures	-3455
▁payments	-3456
▁remained	-3457
▁sealings	-3458
▁Kukulānum	-3459
▁Sukkaliya	-3460
▁Sukkallum	-3461
▁delivered	-3462
▁executive	-3463
▁extremely	-3464
▁gentlemen	-3465
▁negotiate	-3466
▁ourselves	-3467
▁recording	-3468
▁secondary	-3469
▁somewhere	-3470
▁Šaladuwar	-3471
fortunately	-3472
▁dispatched	-3473
▁equivalent	-3474
▁extradited	-3475
▁registered	-3476
▁sacrifices	-3477
▁settlement	-3478
▁youngsters	-3479
▁extradition	-3480
▁immediately	-3481
▁information	-3482
▁compensation	-3483
▁expenditures	-3484
!)	-3485
)-	-3486
?,	-3487
hā	-3488
iw	-3489
si	-3490
tu	-3491
āṣ	-3492
⁄3	-3493
.),	-3494
8.5	-3495
>-5	-3496
?""	-3497
Kub	-3498
Our	-3499
Pay	-3500
ahi	-3501
ašm	-3502
ašu	-3503
ašš	-3504
bal	-3505
baš	-3506
bāš	-3507
den	-3508
eem	-3509
eny	-3510
ett	-3511
ful	-3512
gal	-3513
has	-3514
hin	-3515
iat	-3516
ien	-3517
iga	-3518
its	-3519
izi	-3520
iši	-3521
joy	-3522
kum	-3523
law	-3524
ner	-3525
nil	-3526
sit	-3527
tūr	-3528
una	-3529
urr	-3530
uti	-3531
šan	-3532
▁(1	-3533
▁49	-3534
▁65	-3535
▁70	-3536
▁Da	-3537
▁Ea	-3538
▁Em	-3539
▁Ip	-3540
▁Sū	-3541
▁VI	-3542
▁fl	-3543
▁id	-3544
▁mo	-3545
(?);	-3546
.0.5	-3547
Keep	-3548
Take	-3549
What	-3550
adut	-3551
arra	-3552
arša	-3553
ates	-3554
bear	-3555
cort	-3556
eave	-3557
ffic	-3558
gacy	-3559
heck	-3560
ibum	-3561
ient	-3562
inct	-3563
ites	-3564
itim	-3565
itiš	-3566
ival	-3567
kitt	-3568
lare	-3569
lict	-3570
lope	-3571
maza	-3572
nišū	-3573
plus	-3574
radi	-3575
rown	-3576
seal	-3577
sing	-3578
tail	-3579
type	-3580
unad	-3581
uzum	-3582
uṣur	-3583
ween	-3584
when	-3585
šadū	-3586
šiši	-3587
▁(?)	-3588
▁000	-3589
▁2⁄3	-3590
▁600	-3591
▁Act	-3592
▁Akū	-3593
▁Alu	-3594
▁Ašu	-3595
▁Bul	-3596
▁Duš	-3597
▁Išu	-3598
▁Kik	-3599
▁Mer	-3600
▁Nen	-3601
▁Nūr	-3602
▁Sak	-3603
▁Sal	-3604
▁Sam	-3605
▁Six	-3606
▁Spe	-3607
▁Tab	-3608
▁Tud	-3609
▁Zur	-3610
▁arm	-3611
▁boy	-3612
▁cal	-3613
▁cap	-3614
▁div	-3615
▁few	-3616
▁hub	-3617
▁hun	-3618
▁imp	-3619
▁len	-3620
▁lie	-3621
▁lod	-3622
▁mas	-3623
▁nar	-3624
▁ore	-3625
▁ran	-3626
▁rum	-3627
▁six	-3628
▁sto	-3629
▁try	-3630
▁via	-3631
▁Šab	-3632
▁Šak	-3633
▁Šam	-3634
▁Šuk	-3635
▁šad	-3636
▁šul	-3637
Aššūr	-3638
Ellil	-3639
Kubum	-3640
Mīšar	-3641
Samas	-3642
Since	-3643
abbil	-3644
ališk	-3645
baštī	-3646
bāštī	-3647
dādum	-3648
ested	-3649
hurum	-3650
ibula	-3651
imbur	-3652
irect	-3653
ished	-3654
ithum	-3655
jects	-3656
kulma	-3657
ledge	-3658
nilga	-3659
range	-3660
rēṣum	-3661
tānum	-3662
tūram	-3663
▁Abum	-3664
▁Apum	-3665
▁Aššu	-3666
▁Bala	-3667
▁Both	-3668
▁Conf	-3669
▁Deny	-3670
▁Five	-3671
▁Half	-3672
▁Happ	-3673
▁Ibnī	-3674
▁Irma	-3675
▁Muza	-3676
▁Open	-3677
▁Tuli	-3678
▁Uzub	-3679
▁Ward	-3680
▁Zuzu	-3681
▁cold	-3682
▁coun	-3683
▁curr	-3684
▁deny	-3685
▁drag	-3686
▁enve	-3687
▁evil	-3688
▁feet	-3689
▁fest	-3690
▁idle	-3691
▁mill	-3692
▁pegs	-3693
▁sake	-3694
▁sets	-3695
▁wear	-3696
▁wood	-3697
▁Āmur	-3698
Please	-3699
angers	-3700
atives	-3701
ertain	-3702
ettata	-3703
idence	-3704
ilānum	-3705
ouches	-3706
ounced	-3707
priest	-3708
talent	-3709
worthy	-3710
▁Ahiya	-3711
▁Akuwa	-3712
▁Ašsur	-3713
▁Check	-3714
▁Dalaš	-3715
▁Hunad	-3716
▁Ikuwa	-3717
▁Kadut	-3718
▁Kukra	-3719
▁Kulma	-3720
▁Malik	-3721
▁Mīšar	-3722
▁Qarra	-3723
▁Urdum	-3724
▁belts	-3725
▁block	-3726
▁boxes	-3727
▁catch	-3728
▁cause	-3729
▁doing	-3730
▁enjoy	-3731
▁exert	-3732
▁habur	-3733
▁happi	-3734
▁haššu	-3735
▁hurāṣ	-3736
▁ident	-3737
▁incre	-3738
▁invol	-3739
▁known	-3740
▁legal	-3741
▁names	-3742
▁owner	-3743
▁packs	-3744
▁saddu	-3745
▁start	-3746
▁stone	-3747
▁super	-3748
▁track	-3749
▁treat	-3750
▁turns	-3751
▁wants	-3752
▁šaddu	-3753
ahšušar	-3754
ališkan	-3755
further	-3756
ginning	-3757
ibility	-3758
ignated	-3759
willing	-3760
▁Ahiaya	-3761
▁Ahātum	-3762
▁Akiaya	-3763
▁Alāhum	-3764
▁Dušuba	-3765
▁Either	-3766
▁Erradi	-3767
▁Gaziya	-3768
▁Hanunu	-3769
▁Katila	-3770
▁Kūbiya	-3771
▁Malaba	-3772
▁Nanaya	-3773
▁Saliya	-3774
▁Samaya	-3775
▁Settle	-3776
▁Susaya	-3777
▁Tūraya	-3778
▁Ummaza	-3779
▁Uršiši	-3780
▁Ušmaya	-3781
▁Zurzur	-3782
▁accept	-3783
▁affect	-3784
▁charge	-3785
▁coffer	-3786
▁demand	-3787
▁direct	-3788
▁escort	-3789
▁expect	-3790
▁favors	-3791
▁hanaya	-3792
▁killed	-3793
▁kutanu	-3794
▁legacy	-3795
▁manage	-3796
▁master	-3797
▁narrow	-3798
▁offers	-3799
▁onions	-3800
▁perish	-3801
▁result	-3802
▁retain	-3803
▁sacred	-3804
▁silent	-3805
▁spring	-3806
▁strife	-3807
▁surely	-3808
▁unpack	-3809
▁winter	-3810
▁Šamuha	-3811
ertainly	-3812
garments	-3813
interest	-3814
mutabbil	-3815
unopened	-3816
▁Adadaya	-3817
▁Akitaya	-3818
▁Atatiya	-3819
▁Aššuwan	-3820
▁Buzuzum	-3821
▁Entrust	-3822
▁However	-3823
▁IZkānum	-3824
▁Iphurum	-3825
▁Karwāya	-3826
▁Kudādum	-3827
▁Kunnāya	-3828
▁Produce	-3829
▁answers	-3830
▁applied	-3831
▁bearing	-3832
▁current	-3833
▁decided	-3834
▁expired	-3835
▁fitting	-3836
▁guarded	-3837
▁harshly	-3838
▁identif	-3839
▁interro	-3840
▁palaces	-3841
▁persons	-3842
▁pledges	-3843
▁porters	-3844
▁reaches	-3845
▁reimbur	-3846
▁session	-3847
▁several	-3848
▁support	-3849
▁weather	-3850
▁youplur	-3851
▁Šunilga	-3852
mentioned	-3853
▁Although	-3854
▁Hunadadu	-3855
▁Kadutala	-3856
▁Liptānum	-3857
▁Marithum	-3858
▁Suettata	-3859
▁although	-3860
▁appropri	-3861
▁cauldron	-3862
▁conflict	-3863
▁delivery	-3864
▁demanded	-3865
▁earnings	-3866
▁entitled	-3867
▁envelope	-3868
▁festival	-3869
▁formally	-3870
▁indicate	-3871
▁listened	-3872
▁precinct	-3873
▁provided	-3874
▁purified	-3875
▁realised	-3876
▁rejected	-3877
▁rendered	-3878
▁searched	-3879
containers	-3880
▁Ennamānum	-3881
▁Ennanātum	-3882
▁Ilališkan	-3883
▁Sukalliya	-3884
▁addressed	-3885
▁cancelled	-3886
▁clearance	-3887
▁different	-3888
▁disappear	-3889
▁discussed	-3890
▁household	-3891
▁impressed	-3892
▁knowledge	-3893
▁pirikannu	-3894
▁recovered	-3895
▁strangers	-3896
▁travelled	-3897
▁unwilling	-3898
▁Šulupkian	-3899
▁complement	-3900
▁conditions	-3901
▁designated	-3902
▁permission	-3903
▁represents	-3904
▁Luhuzattiya	-3905
▁investments	-3906
▁possibility	-3907
▁trustworthy	-3908
▁underweight	-3909
!.	-3910
''	-3911
)!	-3912
-)	-3913
40	-3914
60	-3915
>'	-3916
>>	-3917
?-	-3918
Ab	-3919
Aš	-3920
Is	-3921
Sh	-3922
To	-3923
bs	-3924
dv	-3925
ea	-3926
ee	-3927
mo	-3928
sm	-3929
tr	-3930
vi	-3931
wi	-3932
ār	-3933
īm	-3934
īš	-3935
ūm	-3936
ṭī	-3937
(!)	-3938
.).	-3939
?),	-3940
Abu	-3941
But	-3942
Did	-3943
Nah	-3944
Now	-3945
Who	-3946
aku	-3947
alt	-3948
any	-3949
ask	-3950
ati	-3951
awa	-3952
aša	-3953
aši	-3954
bid	-3955
cal	-3956
cap	-3957
dis	-3958
eet	-3959
emb	-3960
erv	-3961
fig	-3962
god	-3963
hiš	-3964
irr	-3965
leg	-3966
lia	-3967
lim	-3968
lut	-3969
luṣ	-3970
mak	-3971
mer	-3972
oer	-3973
omp	-3974
ory	-3975
phā	-3976
pun	-3977
rit	-3978
rur	-3979
sam	-3980
som	-3981
sum	-3982
ten	-3983
uku	-3984
unn	-3985
uzī	-3986
yet	-3987
you	-3988
āku	-3989
āti	-3990
āzu	-3991
šin	-3992
▁".	-3993
▁(<	-3994
▁1,	-3995
▁1.	-3996
▁3,	-3997
▁38	-3998
▁54	-3999
▁58	-4000
▁62	-4001
▁86	-4002
▁94	-4003
▁Dā	-4004
▁Ga	-4005
▁Mi	-4006
▁Or	-4007
▁Sa	-4008
▁Tē	-4009
▁il	-4010
).""	-4011
Ahum	-4012
Here	-4013
They	-4014
With	-4015
ably	-4016
ahna	-4017
allā	-4018
anah	-4019
arly	-4020
atan	-4021
atna	-4022
ašmē	-4023
ašša	-4024
biya	-4025
buff	-4026
clus	-4027
draw	-4028
dāya	-4029
eyya	-4030
fety	-4031
fund	-4032
hood	-4033
ibal	-4034
idge	-4035
inan	-4036
ines	-4037
isel	-4038
isfy	-4039
ists	-4040
ized	-4041
lien	-4042
loan	-4043
luṣu	-4044
mber	-4045
ored	-4046
orty	-4047
osed	-4048
owed	-4049
ower	-4050
owes	-4051
pers	-4052
poss	-4053
raps	-4054
raya	-4055
trad	-4056
uard	-4057
unct	-4058
upon	-4059
urum	-4060
usur	-4061
uted	-4062
vent	-4063
vide	-4064
watu	-4065
zuzu	-4066
ūdum	-4067
▁180	-4068
▁1:1	-4069
▁603	-4070
▁9.5	-4071
▁Aba	-4072
▁Aki	-4073
▁Ani	-4074
▁App	-4075
▁Ara	-4076
▁Are	-4077
▁Bar	-4078
▁Bud	-4079
▁Ear	-4080
▁Edd	-4081
▁Gan	-4082
▁Hah	-4083
▁Kak	-4084
▁Kil	-4085
▁Kun	-4086
▁Kut	-4087
▁Rep	-4088
▁Sah	-4089
▁Sat	-4090
▁Sik	-4091
▁Ten	-4092
▁Tin	-4093
▁Ziz	-4094
▁adv	-4095
▁bet	-4096
▁far	-4097
▁fed	-4098
▁hid	-4099
▁hir	-4100
▁ide	-4101
▁maj	-4102
▁mis	-4103
▁paš	-4104
▁red	-4105
▁ski	-4106
▁sun	-4107
▁tab	-4108
▁teh	-4109
▁tou	-4110
▁tra	-4111
▁var	-4112
▁Šim	-4113
▁Šiš	-4114
▁Šub	-4115
Apart	-4116
Ašsur	-4117
Nahuš	-4118
after	-4119
ahhin	-4120
aršan	-4121
claim	-4122
edium	-4123
erved	-4124
figur	-4125
ghten	-4126
icate	-4127
icult	-4128
iency	-4129
ilīšu	-4130
irror	-4131
isaba	-4132
iziya	-4133
iškum	-4134
kaean	-4135
lying	-4136
nātum	-4137
posed	-4138
ppiya	-4139
price	-4140
proof	-4141
qudum	-4142
riage	-4143
samsi	-4144
sider	-4145
silli	-4146
smith	-4147
those	-4148
trans	-4149
udida	-4150
uziya	-4151
wniya	-4152
šarra	-4153
šumšu	-4154
▁15.5	-4155
▁19.5	-4156
▁20.5	-4157
▁45.5	-4158
▁Akūa	-4159
▁Buru	-4160
▁Does	-4161
▁Dāya	-4162
▁Ennā	-4163
▁Ernu	-4164
▁Even	-4165
▁Four	-4166
▁Hatt	-4167
▁Ibis	-4168
▁Inar	-4169
▁Išār	-4170
▁Kurz	-4171
▁Lila	-4172
▁Mala	-4173
▁Nazi	-4174
▁Rabi	-4175
▁Tilt	-4176
▁Uphā	-4177
▁Urad	-4178
▁area	-4179
▁bead	-4180
▁cups	-4181
▁deed	-4182
▁draw	-4183
▁ears	-4184
▁espe	-4185
▁forg	-4186
▁gets	-4187
▁hali	-4188
▁halk	-4189
▁hapi	-4190
▁hudu	-4191
▁huma	-4192
▁jail	-4193
▁kind	-4194
▁lend	-4195
▁lies	-4196
▁malt	-4197
▁mark	-4198
▁memo	-4199
▁moth	-4200
▁mour	-4201
▁nerv	-4202
▁none	-4203
▁obli	-4204
▁pays	-4205
▁rabi	-4206
▁runs	-4207
▁salv	-4208
▁snow	-4209
▁upon	-4210
▁wine	-4211
Indeed	-4212
Ishara	-4213
action	-4214
addles	-4215
ahānum	-4216
alānum	-4217
coming	-4218
driver	-4219
emblem	-4220
ferior	-4221
ildoer	-4222
ilipki	-4223
isions	-4224
member	-4225
morrow	-4226
person	-4227
ppilis	-4228
soever	-4229
watuwi	-4230
šināti	-4231
▁Abila	-4232
▁About	-4233
▁Adiya	-4234
▁Adudu	-4235
▁Ahuni	-4236
▁Among	-4237
▁Atāya	-4238
▁Azida	-4239
▁Ašiat	-4240
▁Elali	-4241
▁Enlil	-4242
▁Ennan	-4243
▁Enter	-4244
▁Every	-4245
▁Happu	-4246
▁Harša	-4247
▁Kibal	-4248
▁Labān	-4249
▁Latar	-4250
▁Luhus	-4251
▁Place	-4252
▁Sadly	-4253
▁Sahar	-4254
▁Sūaya	-4255
▁Where	-4256
▁Zikur	-4257
▁afore	-4258
▁alien	-4259
▁annul	-4260
▁assum	-4261
▁boots	-4262
▁bribe	-4263
▁chaff	-4264
▁combs	-4265
▁drawn	-4266
▁dying	-4267
▁fight	-4268
▁finan	-4269
▁funct	-4270
▁greet	-4271
▁guide	-4272
▁happy	-4273
▁illeg	-4274
▁lived	-4275
▁local	-4276
▁marry	-4277
▁match	-4278
▁metal	-4279
▁owned	-4280
▁parts	-4281
▁press	-4282
▁proof	-4283
▁quitt	-4284
▁roads	-4285
▁ruler	-4286
▁serve	-4287
▁spare	-4288
▁sweet	-4289
▁terri	-4290
▁thres	-4291
▁tiles	-4292
▁trade	-4293
▁white	-4294
▁wrong	-4295
▁Šarni	-4296
▁Šilip	-4297
▁Šuppi	-4298
▁šulhu	-4299
▁Ṣallā	-4300
Ennānum	-4301
Tammuzī	-4302
ašranni	-4303
clusion	-4304
longing	-4305
uṣranni	-4306
▁3.1666	-4307
▁3.6666	-4308
▁4.1666	-4309
▁4.8333	-4310
▁5.8333	-4311
▁Abatan	-4312
▁Akutum	-4313
▁Atanah	-4314
▁Buzāzu	-4315
▁Buṣiya	-4316
▁Certif	-4317
▁Damuma	-4318
▁Daraši	-4319
▁Didiya	-4320
▁Dumana	-4321
▁Hahhum	-4322
▁Išuhum	-4323
▁Kakuwa	-4324
▁Kiliya	-4325
▁Kurkur	-4326
▁Kuzizi	-4327
▁Manuba	-4328
▁Narmak	-4329
▁Sueyya	-4330
▁Tibula	-4331
▁Travel	-4332
▁Wardum	-4333
▁access	-4334
▁acting	-4335
▁barber	-4336
▁bearer	-4337
▁blocks	-4338
▁bridge	-4339
▁chisel	-4340
▁destro	-4341
▁driver	-4342
▁enough	-4343
▁enters	-4344
▁excess	-4345
▁fellow	-4346
▁forbid	-4347
▁forced	-4348
▁fuller	-4349
▁guides	-4350
▁hadaya	-4351
▁hanāya	-4352
▁instal	-4353
▁manner	-4354
▁medium	-4355
▁miller	-4356
▁mirror	-4357
▁namely	-4358
▁needed	-4359
▁passes	-4360
▁ransom	-4361
▁redeem	-4362
▁regret	-4363
▁remind	-4364
▁retail	-4365
▁safety	-4366
▁secret	-4367
▁secure	-4368
▁showed	-4369
▁stated	-4370
▁stored	-4371
▁straps	-4372
▁suffer	-4373
▁thrown	-4374
▁unable	-4375
▁Šišara	-4376
▁Šudāya	-4377
▁Šuzuzu	-4378
ahhinnum	-4379
handedly	-4380
measures	-4381
possible	-4382
▁10.6666	-4383
▁13.3333	-4384
▁13.6666	-4385
▁15.6666	-4386
▁Asqudum	-4387
▁Atadiya	-4388
▁Azutāya	-4389
▁Babilum	-4390
▁Belanum	-4391
▁Convert	-4392
▁Dadanum	-4393
▁Dannaya	-4394
▁Earlier	-4395
▁Ippilis	-4396
▁Katātum	-4397
▁Malahum	-4398
▁Nenašša	-4399
▁Sakliya	-4400
▁Satisfy	-4401
▁Tawniya	-4402
▁Uphāqum	-4403
▁Without	-4404
▁between	-4405
▁capable	-4406
▁cheated	-4407
▁courage	-4408
▁declare	-4409
▁demands	-4410
▁detains	-4411
▁effectu	-4412
▁forward	-4413
▁haburat	-4414
▁haditum	-4415
▁hurrama	-4416
▁imposed	-4417
▁looking	-4418
▁meeting	-4419
▁nervous	-4420
▁objects	-4421
▁pašallu	-4422
▁pleaded	-4423
▁skipper	-4424
▁smuggle	-4425
▁surplus	-4426
▁touched	-4427
▁traffic	-4428
▁worried	-4429
▁yousing	-4430
▁Šalahšu	-4431
▁Šukutum	-4432
▁šilipki	-4433
figurines	-4434
positions	-4435
resenting	-4436
▁Consider	-4437
▁Eddinaya	-4438
▁Kikaršan	-4439
▁Tiltitiš	-4440
▁Tuwatuwi	-4441
▁Whatever	-4442
▁achieved	-4443
▁affected	-4444
▁argument	-4445
▁carrying	-4446
▁complain	-4447
▁consumed	-4448
▁contests	-4449
▁document	-4450
▁evidence	-4451
▁evildoer	-4452
▁function	-4453
▁inferior	-4454
▁interior	-4455
▁journeys	-4456
▁majority	-4457
▁marriage	-4458
▁mourning	-4459
▁receives	-4460
▁recorded	-4461
▁remitted	-4462
▁reserved	-4463
▁resident	-4464
▁sikkitim	-4465
▁sikkātum	-4466
▁smuggled	-4467
▁standard	-4468
▁stations	-4469
▁superior	-4470
▁verdicts	-4471
▁withdraw	-4472
▁Babalānum	-4473
▁Ennānātum	-4474
▁Kuzilānum	-4475
▁Reckoning	-4476
▁Therefore	-4477
▁Witnesses	-4478
▁announced	-4479
▁answering	-4480
▁authority	-4481
▁beginning	-4482
▁creditors	-4483
▁difficult	-4484
▁gathering	-4485
▁halkiaššu	-4486
▁illegally	-4487
▁inquiries	-4488
▁interests	-4489
▁merchants	-4490
▁messanger	-4491
▁officials	-4492
▁quittance	-4493
▁regularly	-4494
▁reimburse	-4495
▁remaining	-4496
▁something	-4497
▁threshing	-4498
▁whereupon	-4499
▁Šabahānum	-4500
▁Šilipkian	-4501
▁Abatanānum	-4502
▁afterwards	-4503
▁alahhinnum	-4504
▁blacksmith	-4505
▁conclusion	-4506
▁deductions	-4507
▁deficiency	-4508
▁deposition	-4509
▁especially	-4510
▁invalidate	-4511
▁previously	-4512
▁provisions	-4513
▁whatsoever	-4514
▁Šulupkaean	-4515
▁Luhusaddiya	-4516
▁countryside	-4517
▁represented	-4518
▁Representing	-4519
▁appropriated	-4520
▁dispositions	-4521
▁testamentary	-4522
▁Unfortunately	-4523
▁consideration	-4524
▁undergarments	-4525
";	-4526
(-	-4527
.2	-4528
50	-4529
84	-4530
><	-4531
?:	-4532
?;	-4533
Er	-4534
Lā	-4535
My	-4536
Wa	-4537
Wē	-4538
aq	-4539
da	-4540
fu	-4541
gā	-4542
ih	-4543
mu	-4544
my	-4545
qq	-4546
sp	-4547
yē	-4548
zē	-4549
ṣi	-4550
ṭṭ	-4551
▁i	-4552
▁x	-4553
▁ā	-4554
▁ṣ	-4555
!".	-4556
!',	-4557
.'"	-4558
.10	-4559
3.5	-4560
>-1	-4561
>-2	-4562
>-3	-4563
>?"	-4564
How	-4565
Pro	-4566
Tim	-4567
Wēr	-4568
amk	-4569
ane	-4570
ars	-4571
aru	-4572
asu	-4573
ban	-4574
bed	-4575
bla	-4576
btu	-4577
cup	-4578
dec	-4579
dun	-4580
een	-4581
ema	-4582
eps	-4583
esm	-4584
fin	-4585
gim	-4586
gth	-4587
ham	-4588
haš	-4589
hip	-4590
ibr	-4591
idd	-4592
iet	-4593
ilū	-4594
ira	-4595
kar	-4596
kus	-4597
māt	-4598
oil	-4599
!,	-4600
eš	-4601
bre	-4602
ely	-4603
kaš	-4604
ool	-4605
oud	-4606
ove	-4607
piy	-4608
ply	-4609
ral	-4610
ria	-4611
ris	-4612
say	-4613
set	-4614
spe	-4615
tem	-4616
uhu	-4617
umi	-4618
usu	-4619
vey	-4620
wal	-4621
yal	-4622
āli	-4623
āru	-4624
ūṣi	-4625
▁."	-4626
▁.'	-4627
▁.-	-4628
▁3-	-4629
▁59	-4630
▁61	-4631
▁63	-4632
▁72	-4633
▁85	-4634
▁8?	-4635
▁90	-4636
▁92	-4637
▁96	-4638
▁<<	-4639
▁?"	-4640
▁?,	-4641
▁Bu	-4642
▁Co	-4643
▁Ex	-4644
▁Ri	-4645
▁Tū	-4646
▁Ub	-4647
▁ax	-4648
▁gl	-4649
▁jo	-4650
▁ye	-4651
▁šu	-4652
▁Ṣe	-4653
'.""	-4654
(?)<	-4655
(?)>	-4656
.333	-4657
>"."	-4658
Anim	-4659
Erra	-4660
From	-4661
Kūbī	-4662
Sure	-4663
Then	-4664
True	-4665
Wait	-4666
abia	-4667
alam	-4668
alse	-4669
alūm	-4670
ampa	-4671
amur	-4672
anqu	-4673
apra	-4674
aqqu	-4675
arka	-4676
balā	-4677
blet	-4678
bute	-4679
char	-4680
cial	-4681
cost	-4682
cups	-4683
each	-4684
eeth	-4685
ense	-4686
even	-4687
gaya	-4688
gāšu	-4689
half	-4690
hama	-4691
head	-4692
hief	-4693
ibru	-4694
igns	-4695
ikur	-4696
inah	-4697
iqum	-4698
itar	-4699
lp	-4700
Puz	-4701
bly	-4702
ela	-4703
ery	-4704
giv	-4705
isp	-4706
mea	-4707
sts	-4708
vet	-4709
▁66	-4710
▁Du	-4711
▁Lū	-4712
▁Ma	-4713
▁Mu	-4714
Make	-4715
agal	-4716
cted	-4717
gate	-4718
hala	-4719
itiz	-4720
ixed	-4721
išar	-4722
išra	-4723
kels	-4724
know	-4725
kuku	-4726
lean	-4727
licy	-4728
load	-4729
loor	-4730
male	-4731
meni	-4732
mert	-4733
mine	-4734
niyē	-4735
oken	-4736
olen	-4737
oned	-4738
orry	-4739
osen	-4740
pann	-4741
plot	-4742
qqad	-4743
rema	-4744
riga	-4745
rugs	-4746
said	-4747
seer	-4748
sels	-4749
tack	-4750
taku	-4751
thus	-4752
ttle	-4753
tāya	-4754
ueni	-4755
uing	-4756
umin	-4757
usan	-4758
uten	-4759
ways	-4760
wazi	-4761
wedu	-4762
were	-4763
wise	-4764
zaya	-4765
ālim	-4766
īmat	-4767
īšur	-4768
▁10-	-4769
▁110	-4770
▁117	-4771
▁120	-4772
▁15,	-4773
▁156	-4774
▁16,	-4775
▁170	-4776
▁181	-4777
▁1:7	-4778
▁1:8	-4779
▁20,	-4780
▁200	-4781
▁207	-4782
▁221	-4783
▁280	-4784
▁30,	-4785
▁40?	-4786
▁684	-4787
▁6:1	-4788
▁Alī	-4789
▁Asq	-4790
▁Ata	-4791
▁Aše	-4792
▁Bek	-4793
▁Biz	-4794
▁Duh	-4795
▁Eld	-4796
▁Eni	-4797
▁Ezē	-4798
▁Ešu	-4799
▁Has	-4800
▁Her	-4801
▁Hin	-4802
▁Hit	-4803
▁Hur	-4804
▁Ind	-4805
▁Išh	-4806
▁Išt	-4807
▁Kab	-4808
▁Kay	-4809
▁Kiz	-4810
▁Kup	-4811
▁Lay	-4812
▁Mad	-4813
▁Mas	-4814
▁Mem	-4815
▁Mut	-4816
▁Muš	-4817
▁Ner	-4818
▁Nit	-4819
▁Niw	-4820
▁Par	-4821
▁Puq	-4822
▁Rim	-4823
▁Sas	-4824
▁Sue	-4825
▁Tah	-4826
▁Umm	-4827
▁Whe	-4828
▁Zia	-4829
▁Zil	-4830
▁Zum	-4831
▁air	-4832
▁ang	-4833
▁bor	-4834
▁cou	-4835
▁cow	-4836
▁end	-4837
▁fri	-4838
▁ham	-4839
▁hul	-4840
▁ill	-4841
▁lad	-4842
▁lea	-4843
▁low	-4844
▁mel	-4845
▁mul	-4846
▁num	-4847
▁oli	-4848
▁opp	-4849
▁ori	-4850
▁pas	-4851
▁rev	-4852
▁rid	-4853
▁sim	-4854
▁sol	-4855
▁ste	-4856
▁sus	-4857
▁tis	-4858
▁wab	-4859
▁wax	-4860
About	-4861
Aurum	-4862
Leave	-4863
Narum	-4864
Puzur	-4865
Sever	-4866
Tašmē	-4867
about	-4868
ached	-4869
akaya	-4870
alize	-4871
anaya	-4872
aring	-4873
artum	-4874
asant	-4875
asing	-4876
ating	-4877
atman	-4878
ayali	-4879
batum	-4880
bread	-4881
buala	-4882
caped	-4883
comes	-4884
doing	-4885
dress	-4886
ellit	-4887
emand	-4888
ences	-4889
ended	-4890
ently	-4891
esmir	-4892
eties	-4893
ffers	-4894
funds	-4895
garri	-4896
gates	-4897
gimlī	-4898
goods	-4899
guard	-4900
haust	-4901
hišna	-4902
ibani	-4903
igant	-4904
ilder	-4905
imtum	-4906
inent	-4907
ināya	-4908
irdle	-4909
ively	-4910
ištum	-4911
karwa	-4912
kašid	-4913
kubtu	-4914
kuhum	-4915
kusum	-4916
libši	-4917
loads	-4918
ments	-4919
minas	-4920
nning	-4921
order	-4922
quire	-4923
racks	-4924
rator	-4925
rears	-4926
retch	-4927
roach	-4928
solut	-4929
spice	-4930
stors	-4931
takal	-4932
tempt	-4933
tends	-4934
their	-4935
unuwa	-4936
utani	-4937
uttum	-4938
walla	-4939
šamši	-4940
▁(1-)	-4941
▁16.5	-4942
▁18.5	-4943
▁20-<	-4944
▁23.5	-4945
▁27.5	-4946
▁31.5	-4947
▁33.5	-4948
▁34.5	-4949
▁35.5	-4950
▁37.5	-4951
▁40.5	-4952
▁42.5	-4953
▁46.5	-4954
▁51.5	-4955
▁53.5	-4956
▁56.5	-4957
▁Abdu	-4958
▁Agua	-4959
▁Amor	-4960
▁Amua	-4961
▁Ašed	-4962
▁Ašet	-4963
▁Baba	-4964
▁Baši	-4965
▁Bebe	-4966
▁Būṣi	-4967
▁Ebla	-4968
▁GAli	-4969
▁Hire	-4970
▁Ikua	-4971
▁Inib	-4972
▁Irbi	-4973
▁Iziz	-4974
▁Išar	-4975
▁Kize	-4976
▁Kukū	-4977
▁Kulu	-4978
▁Mann	-4979
▁Naku	-4980
▁Nini	-4981
▁Puzu	-4982
▁Qaṭṭ	-4983
▁Save	-4984
▁Sumi	-4985
▁Tara	-4986
▁Tell	-4987
▁Town	-4988
▁Tudh	-4989
▁Unap	-4990
▁Uršu	-4991
▁Wool	-4992
▁Year	-4993
▁Zarn	-4994
▁Zuwa	-4995
▁burā	-4996
▁call	-4997
▁datu	-4998
▁dece	-4999
▁enga	-5000
▁feas	-5001
▁find	-5002
▁fled	-5003
▁grab	-5004
▁grow	-5005
▁hard	-5006
▁haul	-5007
▁hazu	-5008
▁help	-5009
▁hide	-5010
▁hund	-5011
▁hurt	-5012
▁idea	-5013
▁impl	-5014
▁life	-5015
▁logs	-5016
▁love	-5017
▁maya	-5018
▁nibr	-5019
▁oral	-5020
▁oust	-5021
▁outs	-5022
▁play	-5023
▁plur	-5024
▁pour	-5025
▁pure	-5026
▁rely	-5027
▁requ	-5028
▁reve	-5029
▁ripe	-5030
▁sand	-5031
▁sham	-5032
▁situ	-5033
▁size	-5034
▁spir	-5035
▁stop	-5036
▁stra	-5037
▁subm	-5038
▁such	-5039
▁sues	-5040
▁suff	-5041
▁sugg	-5042
▁tall	-5043
▁tamk	-5044
▁text	-5045
▁tied	-5046
▁tind	-5047
▁warn	-5048
▁weft	-5049
▁wrap	-5050
▁āmur	-5051
▁Šili	-5052
▁Šuma	-5053
Nisaba	-5054
Within	-5055
anding	-5056
anquet	-5057
apraka	-5058
araean	-5059
atiwar	-5060
balāṭī	-5061
bearer	-5062
buffed	-5063
credit	-5064
deduct	-5065
dunani	-5066
enance	-5067
eponym	-5068
gation	-5069
gotten	-5070
haliya	-5071
hurpiy	-5072
igated	-5073
ilūssu	-5074
inuman	-5075
iously	-5076
ishing	-5077
itizen	-5078
malasu	-5079
mertum	-5080
office	-5081
oranda	-5082
orized	-5083
ousand	-5084
parate	-5085
pening	-5086
racted	-5087
ranged	-5088
ribute	-5089
risent	-5090
ritory	-5091
rother	-5092
rurtum	-5093
should	-5094
sitate	-5095
sitive	-5096
temple	-5097
trader	-5098
ulānum	-5099
unniya	-5100
unpaid	-5101
unuman	-5102
victed	-5103
štarum	-5104
▁0.333	-5105
▁1:8.5	-5106
▁Abela	-5107
▁Agaya	-5108
▁Akuka	-5109
▁Alaya	-5110
▁Amura	-5111
▁Arawa	-5112
▁Baqqu	-5113
▁Batna	-5114
▁Bubur	-5115
▁Chief	-5116
▁Emeni	-5117
▁Hanna	-5118
▁Husan	-5119
▁Idida	-5120
▁Ilali	-5121
▁Imlik	-5122
▁Isaya	-5123
▁Kalka	-5124
▁Kaneš	-5125
▁Kaniš	-5126
▁Kukua	-5127
▁Kulia	-5128
▁Kuzuz	-5129
▁Laban	-5130
▁Laqēp	-5131
▁Leave	-5132
▁Libbi	-5133
▁Lāqēp	-5134
▁Miššu	-5135
▁Mīšur	-5136
▁Nirah	-5137
▁Parka	-5138
▁River	-5139
▁Sahri	-5140
▁Seven	-5141
▁Small	-5142
▁Those	-5143
▁Under	-5144
▁Unuba	-5145
▁Zagal	-5146
▁Zukua	-5147
▁above	-5148
▁accum	-5149
▁ahead	-5150
▁aloud	-5151
▁arbit	-5152
▁below	-5153
▁board	-5154
▁built	-5155
▁campa	-5156
▁cheap	-5157
▁chose	-5158
▁class	-5159
▁clean	-5160
▁comma	-5161
▁covet	-5162
▁cumin	-5163
▁datum	-5164
▁debit	-5165
▁deter	-5166
▁draws	-5167
▁dried	-5168
▁falls	-5169
▁false	-5170
▁fixed	-5171
▁flask	-5172
▁floor	-5173
▁grant	-5174
▁grave	-5175
▁green	-5176
▁happu	-5177
▁harab	-5178
▁hears	-5179
▁hirdu	-5180
▁impro	-5181
▁inver	-5182
▁judge	-5183
▁learn	-5184
▁lying	-5185
▁might	-5186
▁moths	-5187
▁named	-5188
▁noone	-5189
▁party	-5190
▁plane	-5191
▁power	-5192
▁queen	-5193
▁quest	-5194
▁quiet	-5195
▁reeds	-5196
▁repla	-5197
▁river	-5198
▁royal	-5199
▁ruins	-5200
▁sadly	-5201
▁sales	-5202
▁shows	-5203
▁sikku	-5204
▁sorry	-5205
▁sound	-5206
▁spoon	-5207
▁staff	-5208
▁steps	-5209
▁stock	-5210
▁subst	-5211
▁takes	-5212
▁tarry	-5213
▁teeth	-5214
▁think	-5215
▁touch	-5216
▁tries	-5217
▁troub	-5218
▁upper	-5219
▁upset	-5220
▁wagon	-5221
▁watch	-5222
▁woman	-5223
▁young	-5224
▁Šarru	-5225
▁Šupun	-5226
▁Šīmat	-5227
▁Ṣeher	-5228
.1.3333	-5229
Produce	-5230
Several	-5231
Timniyē	-5232
bearing	-5233
holders	-5234
opening	-5235
partial	-5236
pension	-5237
present	-5238
quality	-5239
shekels	-5240
station	-5241
takušar	-5242
thereof	-5243
uestion	-5244
utenant	-5245
vessels	-5246
witness	-5247
▁2.1666	-5248
▁2.8333	-5249
▁7.6666	-5250
▁9.3333	-5251
▁9.8333	-5252
▁Ahuqar	-5253
▁Amkuwa	-5254
▁Annali	-5255
▁Assist	-5256
▁Atahšu	-5257
▁Bekaya	-5258
▁Bitaya	-5259
▁Bulina	-5260
▁Bulāli	-5261
▁Butqum	-5262
▁Buzuzu	-5263
▁Dannum	-5264
▁Demand	-5265
▁Duhniš	-5266
▁During	-5267
▁Dādaya	-5268
▁Elders	-5269
▁Ešarra	-5270
▁Ganunu	-5271
▁Hattus	-5272
▁Hitani	-5273
▁Ibisua	-5274
▁Kaluwa	-5275
▁Kaziya	-5276
▁Kulaba	-5277
▁Kunila	-5278
▁Lataya	-5279
▁Libaya	-5280
▁Listen	-5281
▁Merali	-5282
▁Merani	-5283
▁Naniya	-5284
▁Niwala	-5285
▁Puqidi	-5286
▁Qaqqad	-5287
▁Sasiya	-5288
▁Shorty	-5289
▁Turaya	-5290
▁Waliya	-5291
▁accomp	-5292
▁across	-5293
▁advise	-5294
▁assume	-5295
▁attack	-5296
▁besmir	-5297
▁boiled	-5298
▁bother	-5299
▁buried	-5300
▁called	-5301
▁cancel	-5302
▁caught	-5303
▁chased	-5304
▁clears	-5305
▁closed	-5306
▁common	-5307
▁comply	-5308
▁convey	-5309
▁couple	-5310
▁covers	-5311
▁denied	-5312
▁divide	-5313
▁double	-5314
▁drinks	-5315
▁effort	-5316
▁entire	-5317
▁except	-5318
▁exists	-5319
▁failed	-5320
▁female	-5321
▁fetter	-5322
▁forget	-5323
▁freely	-5324
▁girdle	-5325
▁goblet	-5326
▁guards	-5327
▁hadāya	-5328
▁hanuba	-5329
▁hatiya	-5330
▁heated	-5331
▁huliya	-5332
▁hungry	-5333
▁hurāṣī	-5334
▁huziya	-5335
▁kettle	-5336
▁ladies	-5337
▁length	-5338
▁loaded	-5339
▁lodged	-5340
▁looked	-5341
▁marked	-5342
▁mouths	-5343
▁moving	-5344
▁notice	-5345
▁number	-5346
▁olives	-5347
▁paying	-5348
▁pester	-5349
▁places	-5350
▁policy	-5351
▁priced	-5352
▁proves	-5353
▁refine	-5354
▁reigns	-5355
▁rented	-5356
▁ruling	-5357
▁rumour	-5358
▁smiths	-5359
▁smuggl	-5360
▁spoken	-5361
▁starts	-5362
▁states	-5363
▁stolen	-5364
▁supann	-5365
▁tables	-5366
▁taking	-5367
▁talked	-5368
▁waited	-5369
▁wished	-5370
▁woolen	-5371
▁worded	-5372
▁yellow	-5373
balanced	-5374
creditor	-5375
solutely	-5376
tahšušar	-5377
yourself	-5378
▁0.3333?	-5379
▁1.3333?	-5380
▁11.3333	-5381
▁11.6666	-5382
▁11.8333	-5383
▁14.1666	-5384
▁16.1666	-5385
▁16.8333	-5386
▁17.3333	-5387
▁18.3333	-5388
▁18.6666	-5389
▁2.66666	-5390
▁27.8333	-5391
▁30.3333	-5392
▁31.3333	-5393
▁55.6666	-5394
▁Alutani	-5395
▁Asqūdum	-5396
▁Babazua	-5397
▁Budātum	-5398
▁Buṣānum	-5399
▁Bēlātum	-5400
▁Confirm	-5401
▁Edinaya	-5402
▁Edināya	-5403
▁Inquire	-5404
▁Ištahšu	-5405
▁Karahna	-5406
▁Kunnaya	-5407
▁Kurziya	-5408
▁Kuzizya	-5409
▁Laqēpum	-5410
▁Latarak	-5411
▁Mutalum	-5412
▁Mušueni	-5413
▁Nahriya	-5414
▁Nannaya	-5415
▁Napraka	-5416
▁Nothing	-5417
▁Pouches	-5418
▁Provide	-5419
▁Qardāya	-5420
▁Realize	-5421
▁Subriga	-5422
▁Subārum	-5423
▁Sukkuku	-5424
▁Sukuhum	-5425
▁Tablets	-5426
▁Tukubtu	-5427
▁Turhala	-5428
▁Ummassa	-5429
▁Wališra	-5430
▁Wašibru	-5431
▁Whether	-5432
▁Whoever	-5433
▁Zuzānum	-5434
▁achieve	-5435
▁angered	-5436
▁appears	-5437
▁arguing	-5438
▁arrange	-5439
▁arrears	-5440
▁banquet	-5441
▁becomes	-5442
▁binding	-5443
▁boatman	-5444
▁boxwood	-5445
▁builder	-5446
▁citizen	-5447
▁coffers	-5448
▁colored	-5449
▁counsel	-5450
▁counter	-5451
▁destroy	-5452
▁eponyms	-5453
▁escaped	-5454
▁escorts	-5455
▁exhaust	-5456
▁feeling	-5457
▁fetters	-5458
▁fromthe	-5459
▁habuala	-5460
▁hadītum	-5461
▁hatahšu	-5462
▁hubītum	-5463
▁hundred	-5464
▁kutanum	-5465
▁kutanus	-5466
▁leaving	-5467
▁lenient	-5468
▁levying	-5469
▁lodging	-5470
▁natives	-5471
▁packers	-5472
▁pouches	-5473
▁profits	-5474
▁purpose	-5475
▁records	-5476
▁results	-5477
▁running	-5478
▁salvage	-5479
▁sandals	-5480
▁seizing	-5481
▁setting	-5482
▁slander	-5483
▁smaller	-5484
▁solvent	-5485
▁special	-5486
▁spoiled	-5487
▁stopped	-5488
▁stretch	-5489
▁telling	-5490
▁thereby	-5491
▁trusted	-5492
▁various	-5493
▁washing	-5494
▁willing	-5495
▁wrapped	-5496
▁yielded	-5497
▁šugarri	-5498
deducting	-5499
hurpiyala	-5500
inahuttum	-5501
priestess	-5502
remaining	-5503
therefore	-5504
transport	-5505
▁Amorites	-5506
▁Amurriya	-5507
▁Anuppiya	-5508
▁Approach	-5509
▁Baqqunum	-5510
▁Buruddum	-5511
▁Buzuliya	-5512
▁Buzutāya	-5513
▁Emmertum	-5514
▁Ennamaya	-5515
▁Hadiaššu	-5516
▁Happuala	-5517
▁Indicate	-5518
▁Instruct	-5519
▁Kiziziya	-5520
▁Kulumāya	-5521
▁Kuskusum	-5522
▁Malakaya	-5523
▁Nahištum	-5524
▁Tarawazi	-5525
▁Walhišna	-5526
▁Walibani	-5527
▁Zarniqum	-5528
▁accepted	-5529
▁alienate	-5530
▁annually	-5531
▁appealed	-5532
▁appeared	-5533
▁applying	-5534
▁arranged	-5535
▁campaign	-5536
▁checking	-5537
▁clearing	-5538
▁compound	-5539
▁computed	-5540
▁contempt	-5541
▁continue	-5542
▁declares	-5543
▁departed	-5544
▁directly	-5545
▁feasible	-5546
▁frighten	-5547
▁gathered	-5548
▁hannānum	-5549
▁hesitate	-5550
▁identify	-5551
▁imminent	-5552
▁increase	-5553
▁involved	-5554
▁judicial	-5555
▁lawsuits	-5556
▁litigant	-5557
▁maltreat	-5558
▁overseer	-5559
▁positive	-5560
▁powerful	-5561
▁pressure	-5562
▁quarters	-5563
▁rebuffed	-5564
▁relevant	-5565
▁remember	-5566
▁reponsib	-5567
▁retailer	-5568
▁retained	-5569
▁ripening	-5570
▁secretly	-5571
▁separate	-5572
▁specific	-5573
▁straight	-5574
▁strongly	-5575
▁suffered	-5576
▁sureties	-5577
▁terribly	-5578
▁thinking	-5579
▁thousand	-5580
▁tomorrow	-5581
▁unpacked	-5582
▁wabartum	-5583
▁withhold	-5584
▁Šalatuar	-5585
▁Šiliuman	-5586
▁Ṣallāmum	-5587
▁Buburānum	-5588
▁Certainly	-5589
▁Certified	-5590
▁Eništarum	-5591
▁Ennanatum	-5592
▁Husanalum	-5593
▁Ištakušar	-5594
▁Kunnanaya	-5595
▁Memoranda	-5596
▁Parrurtum	-5597
▁Subaraean	-5598
▁Tudhaliya	-5599
▁Tudhiliya	-5600
▁amounting	-5601
▁attorneys	-5602
▁certainly	-5603
▁concerned	-5604
▁condition	-5605
▁contested	-5606
▁convicted	-5607
▁enquiries	-5608
▁forgotten	-5609
▁greetings	-5610
▁hazuwalla	-5611
▁hurāṣānum	-5612
▁impartial	-5613
▁important	-5614
▁increased	-5615
▁inspected	-5616
▁presented	-5617
▁purifying	-5618
▁questions	-5619
▁reckoning	-5620
▁reopening	-5621
▁reprisent	-5622
▁seriously	-5623
▁situation	-5624
▁submitted	-5625
▁suggested	-5626
▁territory	-5627
▁travelers	-5628
▁traveling	-5629
▁Šalahšuwa	-5630
▁Šalatiwar	-5631
▁Šarnigāšu	-5632
▁Šuppiahšu	-5633
▁Afterwards	-5634
▁Kaneshites	-5635
▁Nitahšušar	-5636
▁Qaqqadānum	-5637
▁Travellers	-5638
▁absolutely	-5639
▁approached	-5640
▁arbitrator	-5641
▁authorized	-5642
▁besmirched	-5643
▁containing	-5644
▁contracted	-5645
▁contribute	-5646
▁directions	-5647
▁disappears	-5648
▁effectuate	-5649
▁encouraged	-5650
▁favourable	-5651
▁guarantees	-5652
▁harnessers	-5653
▁identified	-5654
▁inverstors	-5655
▁lieutenant	-5656
▁obstructed	-5657
▁oustanding	-5658
▁sacrificed	-5659
▁suppressed	-5660
▁suspension	-5661
▁vindicates	-5662
▁waterproof	-5663
▁wrongdoing	-5664
▁Šuppunuman	-5665
specifically	-5666
▁Luhuzaddiya	-5667
▁Suhurpiyala	-5668
▁accumulated	-5669
▁brotherhood	-5670
▁complaining	-5671
▁differences	-5672
▁financially	-5673
▁gentlemanly	-5674
▁packsaddles	-5675
▁questioning	-5676
▁saddlecloth	-5677
▁vindication	-5678
▁declarations	-5679
▁difficulties	-5680
▁highhandedly	-5681
▁interrogates	-5682
▁investigated	-5683
▁contractually	-5684
▁encouragement	-5685
▁reponsibility	-5686
▁unfortunately	-5687
▁reprisentatives	-5688
!'.	-5689
040	-5690
?>.	-5691
cip	-5692
glu	-5693
klu	-5694
mix	-5695
nel	-5696
new	-5697
nia	-5698
nip	-5699
acc	-5700
emy	-5701
lry	-5702
nmy	-5703
tih	-5704
tom	-5705
ttī	-5706
tuh	-5707
uhš	-5708
zap	-5709
ālu	-5710
ēdu	-5711
šia	-5712
ṭīb	-5713
▁95	-5714
▁?.	-5715
▁Ra	-5716
▁zi	-5717
▁Ṣa	-5718
?.""	-5719
Alum	-5720
Elil	-5721
Half	-5722
Ilil	-5723
Lama	-5724
ains	-5725
alls	-5726
alty	-5727
apag	-5728
aššu	-5729
dain	-5730
datu	-5731
duty	-5732
ends	-5733
fees	-5734
firm	-5735
fish	-5736
gged	-5737
ggle	-5738
gran	-5739
hana	-5740
ieve	-5741
ihar	-5742
ihhu	-5743
ikti	-5744
imea	-5745
iqiq	-5746
irts	-5747
irtu	-5748
irši	-5749
kapp	-5750
mbro	-5751
moil	-5752
muta	-5753
mātē	-5754
oods	-5755
ousy	-5756
oyed	-5757
pted	-5758
ptin	-5759
rawn	-5760
rons	-5761
ruly	-5762
such	-5763
they	-5764
tika	-5765
uals	-5766
unua	-5767
usia	-5768
ussa	-5769
utmo	-5770
veni	-5771
wani	-5772
work	-5773
yant	-5774
ynmy	-5775
ziga	-5776
zira	-5777
zuba	-5778
zālu	-5779
īlum	-5780
šmum	-5781
šuna	-5782
▁(!)	-5783
▁1),	-5784
▁130	-5785
▁142	-5786
▁17,	-5787
▁173	-5788
▁195	-5789
▁1:6	-5790
▁223	-5791
▁226	-5792
▁24?	-5793
▁26!	-5794
▁270	-5795
▁3-<	-5796
▁50,	-5797
▁90,	-5798
▁96?	-5799
aza	-5800
buy	-5801
ibu	-5802
mun	-5803
tun	-5804
▁?)	-5805
▁vi	-5806
Hold	-5807
anaw	-5808
ašib	-5809
fold	-5810
free	-5811
gots	-5812
ibiš	-5813
ibra	-5814
išti	-5815
mbol	-5816
sist	-5817
tune	-5818
uniš	-5819
▁Art	-5820
▁Atū	-5821
▁Com	-5822
▁Dec	-5823
▁Duk	-5824
▁GAZ	-5825
▁Izē	-5826
▁Kaz	-5827
▁Paz	-5828
▁Qat	-5829
▁Ret	-5830
▁Rut	-5831
▁Usm	-5832
▁Waw	-5833
▁Waz	-5834
▁axe	-5835
▁aze	-5836
▁cho	-5837
▁dup	-5838
▁hig	-5839
▁hip	-5840
▁hos	-5841
▁mov	-5842
▁new	-5843
▁rag	-5844
▁sav	-5845
▁saw	-5846
▁vid	-5847
▁vis	-5848
▁yea	-5849
▁zap	-5850
▁Šaz	-5851
▁Ṣip	-5852
>-0.5	-5853
After	-5854
Kraya	-5855
Place	-5856
Seize	-5857
These	-5858
Twice	-5859
Where	-5860
acity	-5861
actly	-5862
adden	-5863
ahuna	-5864
akniš	-5865
amaru	-5866
appaš	-5867
arean	-5868
askan	-5869
ašiba	-5870
aššum	-5871
cates	-5872
cends	-5873
ciers	-5874
cured	-5875
dener	-5876
erien	-5877
ffron	-5878
gents	-5879
ginal	-5880
given	-5881
hamed	-5882
harge	-5883
hašna	-5884
hišan	-5885
hoods	-5886
huala	-5887
ianit	-5888
ician	-5889
idani	-5890
iglet	-5891
igned	-5892
ikašu	-5893
ikkil	-5894
ikkum	-5895
imply	-5896
inner	-5897
ittee	-5898
iuman	-5899
>!"	-5900
azu	-5901
išh	-5902
olt	-5903
rud	-5904
tip	-5905
uda	-5906
Išhā	-5907
ahiš	-5908
anuš	-5909
iruš	-5910
lāya	-5911
olut	-5912
udub	-5913
uhum	-5914
▁114	-5915
▁300	-5916
▁Ana	-5917
▁Dep	-5918
▁fol	-5919
▁Šep	-5920
cated	-5921
dened	-5922
imišh	-5923
imple	-5924
iwali	-5925
iškin	-5926
kirts	-5927
kitti	-5928
lfare	-5929
litka	-5930
loans	-5931
lowed	-5932
malia	-5933
malkī	-5934
massī	-5935
merum	-5936
mišar	-5937
mātum	-5938
mātān	-5939
nirši	-5940
nized	-5941
offer	-5942
olden	-5943
ollow	-5944
opens	-5945
osite	-5946
othed	-5947
otted	-5948
ottom	-5949
ously	-5950
perly	-5951
rahna	-5952
ravel	-5953
reued	-5954
rudan	-5955
rurak	-5956
since	-5957
sutum	-5958
taean	-5959
tails	-5960
taken	-5961
these	-5962
tiply	-5963
tunua	-5964
ubits	-5965
ubuha	-5966
upizi	-5967
ususu	-5968
usāya	-5969
valid	-5970
value	-5971
vened	-5972
viour	-5973
water	-5974
weave	-5975
wedum	-5976
welry	-5977
world	-5978
wēdum	-5979
wīlum	-5980
yield	-5981
yriya	-5982
šihat	-5983
▁10-<	-5984
▁10:1	-5985
▁16:1	-5986
▁1850	-5987
▁1:15	-5988
▁1:17	-5989
▁1:8,	-5990
▁2(?)	-5991
▁3001	-5992
▁32.5	-5993
▁36.5	-5994
▁38.5	-5995
▁4(?)	-5996
▁40-<	-5997
▁48.5	-5998
▁58.5	-5999
ype	-6000
▁73	-6001
▁76	-6002
▁78	-6003
arts	-6004
moon	-6005
oice	-6006
tage	-6007
wart	-6008
yart	-6009
ūmam	-6010
▁'40	-6011
▁12.	-6012
▁128	-6013
▁129	-6014
▁638	-6015
▁Its	-6016
▁Zul	-6017
▁sic	-6018
▁unr	-6019
▁upb	-6020
Hence	-6021
Pilah	-6022
erser	-6023
every	-6024
hašut	-6025
icing	-6026
iners	-6027
joice	-6028
ompla	-6029
uruwa	-6030
users	-6031
warta	-6032
yarti	-6033
▁1280	-6034
▁41.5	-6035
▁59.5	-6036
▁603,	-6037
▁93.5	-6038
▁Abūb	-6039
▁Agia	-6040
▁Akim	-6041
▁Anug	-6042
▁Aput	-6043
▁Arun	-6044
▁Ašaš	-6045
▁Balz	-6046
▁Bani	-6047
▁Bašu	-6048
▁Bebē	-6049
▁Bind	-6050
▁Buzu	-6051
▁Buṣu	-6052
▁Bēlu	-6053
▁Cont	-6054
▁Dazu	-6055
▁Didi	-6056
▁Dumq	-6057
▁Ediš	-6058
▁Hudu	-6059
▁Ibbi	-6060
▁Ikuw	-6061
▁Ikūa	-6062
▁Imdi	-6063
▁Isar	-6064
▁Itur	-6065
▁Išdu	-6066
▁Išim	-6067
▁Išīm	-6068
▁Iṭab	-6069
▁Kakk	-6070
▁Karn	-6071
▁Kazu	-6072
▁Kašš	-6073
▁Kida	-6074
▁Kizi	-6075
▁Know	-6076
▁Kubī	-6077
▁Kūbi	-6078
▁Lead	-6079
▁Like	-6080
▁Lipi	-6081
▁Lock	-6082
▁Luhs	-6083
▁Marš	-6084
▁Mata	-6085
▁Mati	-6086
▁Miss	-6087
▁Mišu	-6088
▁Muan	-6089
▁Muti	-6090
▁Nana	-6091
▁Nimm	-6092
▁None	-6093
▁Nuhš	-6094
▁Only	-6095
▁Peru	-6096
▁Pusu	-6097
▁Pūsu	-6098
▁Ship	-6099
>-0	-6100
Išt	-6101
nak	-6102
īšu	-6103
šun	-6104
▁Ne	-6105
▁Nī	-6106
▁Ob	-6107
Dear	-6108
Were	-6109
ahte	-6110
amea	-6111
ardu	-6112
eari	-6113
ifte	-6114
tell	-6115
vise	-6116
year	-6117
▁7:1	-6118
▁Ada	-6119
▁Adi	-6120
▁Nad	-6121
▁Niz	-6122
▁Nīd	-6123
▁Out	-6124
▁Tak	-6125
▁Uši	-6126
▁amd	-6127
▁epo	-6128
▁hte	-6129
▁ṭāb	-6130
Bring	-6131
amely	-6132
anied	-6133
bugat	-6134
isely	-6135
naked	-6136
pared	-6137
sheep	-6138
ubaya	-6139
ymbol	-6140
▁7:1,	-6141
▁Abub	-6142
▁Azul	-6143
▁Buṣū	-6144
▁Enam	-6145
▁Ikra	-6146
▁Mīšu	-6147
▁Nīde	-6148
▁Taki	-6149
▁Tari	-6150
▁Tida	-6151
▁Ubar	-6152
▁Ubra	-6153
▁Unip	-6154
▁Very	-6155
▁Wald	-6156
▁Whom	-6157
▁Zaba	-6158
▁Zaza	-6159
▁Zilp	-6160
▁Zira	-6161
▁Zuku	-6162
▁Zuma	-6163
▁Zuzū	-6164
▁alul	-6165
▁appe	-6166
▁bilt	-6167
▁buis	-6168
▁buys	-6169
▁calc	-6170
▁cere	-6171
▁cool	-6172
▁desp	-6173
▁dunn	-6174
▁eave	-6175
▁elud	-6176
▁expe	-6177
▁exte	-6178
▁fast	-6179
▁fatt	-6180
▁feel	-6181
▁file	-6182
▁fulf	-6183
▁furn	-6184
▁hada	-6185
▁halu	-6186
▁hana	-6187
▁harš	-6188
▁haši	-6189
▁hipa	-6190
▁incu	-6191
▁jeal	-6192
▁join	-6193
▁lack	-6194
▁lion	-6195
▁liti	-6196
▁mana	-6197
▁move	-6198
▁mutu	-6199
gue	-6200
nāṣ	-6201
qua	-6202
uel	-6203
Šēp	-6204
▁64	-6205
▁je	-6206
avow	-6207
ašar	-6208
ašas	-6209
duct	-6210
fame	-6211
rook	-6212
sequ	-6213
umaš	-6214
unan	-6215
▁15?	-6216
▁Gad	-6217
▁Sul	-6218
▁clo	-6219
▁nul	-6220
abled	-6221
alidi	-6222
ammal	-6223
exist	-6224
iders	-6225
ilili	-6226
imttī	-6227
nāṣir	-6228
ounce	-6229
rings	-6230
three	-6231
ubmit	-6232
ulate	-6233
▁0.5?	-6234
▁1.5!	-6235
▁Babb	-6236
▁Dami	-6237
▁Gent	-6238
▁Izēz	-6239
▁Sulm	-6240
▁fuel	-6241
▁huhu	-6242
▁merh	-6243
▁news	-6244
▁nice	-6245
▁oper	-6246
▁pard	-6247
▁pole	-6248
▁prin	-6249
▁reco	-6250
▁sash	-6251
▁silv	-6252
▁sins	-6253
▁squa	-6254
▁stup	-6255
▁suit	-6256
▁sund	-6257
▁tree	-6258
▁type	-6259
▁upro	-6260
▁vari	-6261
▁vent	-6262
▁viol	-6263
▁wage	-6264
▁wail	-6265
▁wick	-6266
▁wtih	-6267
▁Šada	-6268
▁Šakṣ	-6269
▁Šarb	-6270
▁Šime	-6271
▁Šulm	-6272
▁šulh	-6273
3.6666	-6274
Elamma	-6275
Išhāra	-6276
Shorty	-6277
Submit	-6278
alumni	-6279
aments	-6280
analam	-6281
anamea	-6282
anašar	-6283
antial	-6284
anušta	-6285
assunu	-6286
asture	-6287
atatum	-6288
atuwar	-6289
ašitiš	-6290
bitant	-6291
bjects	-6292
butted	-6293
cedure	-6294
certif	-6295
charge	-6296
ciated	-6297
elliti	-6298
ellitī	-6299
)'.	-6300
?.'	-6301
ekl	-6302
ābu	-6303
Ṭāb	-6304
ekls	-6305
etit	-6306
ittī	-6307
pass	-6308
rank	-6309
sold	-6310
vans	-6311
▁30-	-6312
▁Alw	-6313
▁Ins	-6314
▁Ṭab	-6315
arian	-6316
assum	-6317
attum	-6318
bered	-6319
litre	-6320
longs	-6321
mittī	-6322
night	-6323
sarru	-6324
wardi	-6325
▁44.5	-6326
▁Hear	-6327
▁Heed	-6328
▁Init	-6329
▁Katu	-6330
▁Pack	-6331
▁Sass	-6332
▁Urme	-6333
▁late	-6334
▁outf	-6335
enalty	-6336
entory	-6337
entral	-6338
finite	-6339
giaššu	-6340
gnized	-6341
grance	-6342
guards	-6343
hasuti	-6344
hazira	-6345
icated	-6346
iddina	-6347
idered	-6348
idious	-6349
ighing	-6350
inatal	-6351
inding	-6352
ingots	-6353
ipment	-6354
isease	-6355
ithana	-6356
ithout	-6357
itions	-6358
išhara	-6359
kekels	-6360
liness	-6361
listen	-6362
mannum	-6363
mazaya	-6364
megran	-6365
namely	-6366
nother	-6367
orning	-6368
paying	-6369
profit	-6370
ptinnu	-6371
rdener	-6372
rievan	-6373
rusted	-6374
sarrum	-6375
select	-6376
simply	-6377
stones	-6378
strong	-6379
symbol	-6380
thirds	-6381
tiness	-6382
travel	-6383
turned	-6384
udated	-6385
uduman	-6386
uhitar	-6387
ulliya	-6388
unalam	-6389
unanad	-6390
urmoil	-6391
usārum	-6392
wartan	-6393
wedaku	-6394
wedāku	-6395
yantal	-6396
zilili	-6397
▁100:1	-6398
▁Abada	-6399
ika	-6400
naq	-6401
owe	-6402
tow	-6403
▁71	-6404
▁Zi	-6405
Some	-6406
ediz	-6407
idow	-6408
lame	-6409
town	-6410
▁250	-6411
▁Sūs	-6412
▁Tiz	-6413
▁rit	-6414
▁sca	-6415
(?)."	-6416
class	-6417
iwada	-6418
naqid	-6419
posts	-6420
qānum	-6421
▁Ziki	-6422
▁exit	-6423
▁misd	-6424
▁proc	-6425
▁stro	-6426
▁tran	-6427
▁wide	-6428
▁Šuhu	-6429
anyone	-6430
atānum	-6431
iminal	-6432
itānum	-6433
izānum	-6434
ranani	-6435
urānum	-6436
uzānum	-6437
ēlānum	-6438
▁Abars	-6439
▁Abuna	-6440
▁Abūbu	-6441
▁Adall	-6442
▁Adawa	-6443
▁Agree	-6444
▁Ahuša	-6445
▁Akali	-6446
▁Akuku	-6447
▁Alāku	-6448
▁Anina	-6449
▁Annim	-6450
▁Appar	-6451
▁Asaya	-6452
▁Asuwa	-6453
▁Aziya	-6454
▁Ašuan	-6455
▁Birtu	-6456
▁Bursa	-6457
▁Busia	-6458
▁Buṣua	-6459
▁Dadum	-6460
▁Dalas	-6461
▁Dated	-6462
▁Dumuq	-6463
▁Dādum	-6464
▁Empty	-6465
▁Ennau	-6466
▁Goods	-6467
▁Guard	-6468
▁Happi	-6469
▁Hasut	-6470
▁Ibisu	-6471
▁Idaya	-6472
▁Ididi	-6473
▁Idiya	-6474
▁Iduwa	-6475
▁Ikūnu	-6476
▁Iluwa	-6477
▁Ilāya	-6478
▁Ilīma	-6479
▁Inaya	-6480
▁Inita	-6481
▁Isali	-6482
▁Isuhu	-6483
▁Kakua	-6484
▁Kassu	-6485
▁Kilil	-6486
▁Kilya	-6487
▁Kukul	-6488
▁Kullu	-6489
▁Kunan	-6490
▁Kuzar	-6491
▁Lapis	-6492
▁Manua	-6493
▁Meari	-6494
▁Nahur	-6495
▁Naram	-6496
▁Nikur	-6497
▁Nizum	-6498
▁Obver	-6499
,,	-6500
)!"	-6501
arā	-6502
aul	-6503
dag	-6504
sag	-6505
ssū	-6506
unt	-6507
ēlī	-6508
▁'(	-6509
▁2<	-6510
▁Ug	-6511
▁Ul	-6512
.2.5	-6513
Haul	-6514
Kuti	-6515
agum	-6516
arnt	-6517
dagi	-6518
esnt	-6519
inta	-6520
mugg	-6521
pies	-6522
tair	-6523
uglu	-6524
▁400	-6525
▁Ugi	-6526
▁Use	-6527
▁Ušš	-6528
▁dog	-6529
Today	-6530
aging	-6531
atāni	-6532
gress	-6533
hanum	-6534
iture	-6535
ssūri	-6536
tairc	-6537
urcha	-6538
urmea	-6539
▁1060	-6540
▁13-<	-6541
▁1:8.	-6542
▁Alth	-6543
▁Sear	-6544
▁Ušša	-6545
▁aunt	-6546
▁calm	-6547
▁peri	-6548
0.3333	-6549
9.3333	-6550
curred	-6551
intact	-6552
lation	-6553
lender	-6554
ssūrik	-6555
▁Ilina	-6556
▁Išuah	-6557
▁Puzer	-6558
▁Qatna	-6559
▁Raise	-6560
▁Sagum	-6561
▁Sihar	-6562
▁Sikti	-6563
▁Smugg	-6564
▁Speak	-6565
▁Sulmi	-6566
▁Tahsi	-6567
▁Tamur	-6568
▁Tapag	-6569
▁Tarām	-6570
▁Tarīš	-6571
▁Tašmē	-6572
▁Tizar	-6573
▁Truly	-6574
▁Tuwar	-6575
▁Ukapp	-6576
▁Ukuwa	-6577
▁Ulaya	-6578
▁Unabi	-6579
▁Unapš	-6580
▁Urāya	-6581
▁Utaya	-6582
▁Which	-6583
▁Yours	-6584
▁Zalpe	-6585
▁Zikay	-6586
▁Zikum	-6587
▁Ziqiq	-6588
▁Zizum	-6589
▁aband	-6590
▁abund	-6591
▁annex	-6592
▁arate	-6593
▁ashes	-6594
▁began	-6595
▁blame	-6596
▁bonds	-6597
▁cerem	-6598
▁chase	-6599
(<	-6600
eng	-6601
eni	-6602
gaš	-6603
iša	-6604
ned	-6605
nis	-6606
nly	-6607
nnī	-6608
pot	-6609
qur	-6610
tul	-6611
ēre	-6612
▁1)	-6613
▁91	-6614
▁Rē	-6615
▁cr	-6616
▁sk	-6617
▁Še	-6618
>-60	-6619
Only	-6620
nisu	-6621
tion	-6622
ēreb	-6623
▁126	-6624
▁Aši	-6625
▁Rēm	-6626
▁ben	-6627
▁cre	-6628
▁fam	-6629
▁tal	-6630
poses	-6631
tulid	-6632
▁30.5	-6633
▁Cond	-6634
▁Enan	-6635
▁Kili	-6636
▁Sned	-6637
▁Turi	-6638
▁Uqur	-6639
▁bene	-6640
▁habt	-6641
▁shor	-6642
▁skin	-6643
▁theC	-6644
▁trew	-6645
aktaya	-6646
harsum	-6647
inannī	-6648
irušak	-6649
lamaša	-6650
rupted	-6651
▁Kurzī	-6652
▁Ubaya	-6653
▁Zizul	-6654
▁cheer	-6655
▁cloak	-6656
▁cowry	-6657
▁deeds	-6658
▁denun	-6659
▁discl	-6660
▁drank	-6661
▁duglu	-6662
▁dupli	-6663
▁elude	-6664
▁encum	-6665
▁ended	-6666
▁exact	-6667
▁expla	-6668
▁fails	-6669
▁famil	-6670
▁feast	-6671
▁fetch	-6672
▁firep	-6673
▁flour	-6674
▁focus	-6675
▁grown	-6676
▁halga	-6677
▁halua	-6678
▁hanig	-6679
▁harla	-6680
▁harta	-6681
▁harša	-6682
▁haršu	-6683
▁hattu	-6684
▁heral	-6685
▁hišar	-6686
▁humaš	-6687
▁imper	-6688
▁incap	-6689
▁ingot	-6690
▁invit	-6691
▁lower	-6692
▁maint	-6693
▁mayor	-6694
▁meant	-6695
▁meets	-6696
▁memos	-6697
▁mercy	-6698
▁merhc	-6699
'?	-6700
)?	-6701
ba	-6702
'",	-6703
alu	-6704
asa	-6705
iza	-6706
kuk	-6707
owl	-6708
pli	-6709
puz	-6710
▁Iṭ	-6711
ablī	-6712
bowl	-6713
kaya	-6714
▁102	-6715
▁Iṭi	-6716
▁ced	-6717
▁kuk	-6718
▁tor	-6719
▁tow	-6720
asasa	-6721
aziza	-6722
dānum	-6723
ering	-6724
essed	-6725
isaya	-6726
libba	-6727
pliah	-6728
ppalu	-6729
puzrī	-6730
qablī	-6731
ušala	-6732
▁1:10	-6733
▁Bēlī	-6734
▁Iṭīb	-6735
▁Tume	-6736
▁caus	-6737
▁dare	-6738
▁toil	-6739
▁torn	-6740
cering	-6741
cloths	-6742
taklāk	-6743
▁Akazi	-6744
▁Iṭiab	-6745
▁cedar	-6746
▁kukru	-6747
▁mihhu	-6748
▁miles	-6749
▁minds	-6750
▁mount	-6751
▁movab	-6752
▁mules	-6753
▁nēreb	-6754
▁oaths	-6755
▁often	-6756
▁older	-6757
▁opens	-6758
▁oppon	-6759
▁organ	-6760
▁payed	-6761
▁petit	-6762
▁plann	-6763
▁point	-6764
▁qablī	-6765
▁rages	-6766
▁reass	-6767
▁recip	-6768
▁repay	-6769
▁reply	-6770
▁rider	-6771
▁rules	-6772
▁rumor	-6773
▁scare	-6774
▁sense	-6775
▁seper	-6776
▁sieve	-6777
▁siler	-6778
▁simil	-6779
▁soldi	-6780
▁solut	-6781
▁stays	-6782
▁suppū	-6783
▁tells	-6784
▁thick	-6785
▁tisab	-6786
▁tothe	-6787
▁trips	-6788
▁unlaw	-6789
▁wahte	-6790
▁waist	-6791
▁waste	-6792
▁worse	-6793
▁zapru	-6794
▁Šahiš	-6795
▁Šakri	-6796
▁Šarra	-6797
▁Šašas	-6798
▁Šezur	-6799
>50	-6800
ilē	-6801
qin	-6802
zum	-6803
šur	-6804
▁mu	-6805
▁oc	-6806
beer	-6807
fied	-6808
ilma	-6809
ires	-6810
ller	-6811
āzum	-6812
▁127	-6813
▁Mum	-6814
▁sin	-6815
▁woo	-6816
gated	-6817
isted	-6818
onour	-6819
retor	-6820
ublam	-6821
▁?.""	-6822
▁Bazi	-6823
▁Galu	-6824
▁Test	-6825
▁date	-6826
▁mule	-6827
▁ther	-6828
▁weap	-6829
Hudida	-6830
Ubatum	-6831
atardu	-6832
fested	-6833
ilmašu	-6834
pretor	-6835
roller	-6836
▁26(?)	-6837
▁Ahušu	-6838
▁Asšur	-6839
▁Belal	-6840
▁Eruni	-6841
▁Lālum	-6842
▁Taqin	-6843
▁activ	-6844
▁aired	-6845
▁react	-6846
▁wooll	-6847
▁Šikti	-6848
▁Šuhur	-6849
▁Šulim	-6850
▁Šulmu	-6851
▁Šūmam	-6852
▁Ṣaher	-6853
;0.3333	-6854
>3.6666	-6855
Another	-6856
Because	-6857
Bēlānum	-6858
DUbatum	-6859
Entrust	-6860
Further	-6861
adatiya	-6862
appašat	-6863
appoint	-6864
arikuda	-6865
arimtum	-6866
ašitiša	-6867
belongs	-6868
binannī	-6869
brother	-6870
conduct	-6871
confirm	-6872
declare	-6873
duction	-6874
edizina	-6875
emember	-6876
entions	-6877
erserum	-6878
ferably	-6879
hinnāya	-6880
huzānum	-6881
ikkilet	-6882
ination	-6883
isation	-6884
iscated	-6885
ismurna	-6886
istrain	-6887
lemency	-6888
managed	-6889
mulānum	-6890
objects	-6891
olution	-6892
ortions	-6893
posited	-6894
provide	-6895
rabiāku	-6896
ression	-6897
revious	-6898
ringing	-6899
,'	-6900
-,	-6901
ez	-6902
fl	-6903
iy	-6904
oi	-6905
va	-6906
wl	-6907
Šu	-6908
▁ʾ	-6909
Ask	-6910
šhe	-6911
▁ʾ.	-6912
bank	-6913
dada	-6914
eded	-6915
next	-6916
oius	-6917
ritu	-6918
ulva	-6919
ured	-6920
šams	-6921
šaša	-6922
▁040	-6923
▁42?	-6924
▁Ciy	-6925
▁Mez	-6926
▁Tit	-6927
▁fom	-6928
Clear	-6929
added	-6930
alsen	-6931
clude	-6932
flour	-6933
iddin	-6934
itiat	-6935
uniān	-6936
wašhe	-6937
šamsī	-6938
▁5000	-6939
▁Dear	-6940
▁Duli	-6941
▁Will	-6942
▁Zumu	-6943
▁andĀ	-6944
▁prim	-6945
▁robb	-6946
asured	-6947
orting	-6948
ritual	-6949
seeded	-6950
within	-6951
▁Dagan	-6952
▁Marih	-6953
▁Nanak	-6954
▁Zilat	-6955
▁andĀl	-6956
▁bless	-6957
▁books	-6958
▁carab	-6959
▁prime	-6960
▁recou	-6961
▁shawl	-6962
▁vulva	-6963
earlier	-6964
engthen	-6965
nātumha	-6966
retends	-6967
saddles	-6968
sistent	-6969
stating	-6970
tarting	-6971
telling	-6972
tradite	-6973
uctions	-6974
udubēlī	-6975
umdānum	-6976
uniānus	-6977
usician	-6978
utation	-6979
utioned	-6980
vidence	-6981
workers	-6982
šihatal	-6983
▁1.1666	-6984
▁16,040	-6985
▁7.3333	-6986
▁8.1666	-6987
▁9.6666	-6988
▁Abussa	-6989
▁Adūdum	-6990
▁Ahuašu	-6991
▁Akūtum	-6992
▁Alahum	-6993
▁Alitum	-6994
▁Alwana	-6995
▁Annima	-6996
▁Apdagi	-6997
▁Artama	-6998
▁Ayarti	-6999
")	-7000
El	-7001
āk	-7002
Ašš	-7003
amit	-7004
itut	-7005
malk	-7006
onse	-7007
ries	-7008
▁106	-7009
▁10<	-7010
▁197	-7011
▁Yes	-7012
▁dep	-7013
▁int	-7014
Aššar	-7015
amass	-7016
ašmiš	-7017
itute	-7018
mātēn	-7019
prive	-7020
rians	-7021
taxes	-7022
▁25.5	-7023
▁Anum	-7024
▁Hada	-7025
▁Tali	-7026
▁coax	-7027
Lamass	-7028
Surely	-7029
ioning	-7030
ittles	-7031
malkim	-7032
stands	-7033
yields	-7034
▁Eruzi	-7035
▁Lalūm	-7036
▁Tegra	-7037
▁advis	-7038
▁bride	-7039
▁crook	-7040
▁embro	-7041
▁inlay	-7042
▁pract	-7043
▁sends	-7044
▁woven	-7045
ifteent	-7046
▁Azitar	-7047
▁Ašuwan	-7048
▁Babala	-7049
▁Babali	-7050
▁Babaya	-7051
▁Badiya	-7052
▁Balṭum	-7053
▁Barley	-7054
▁Basasa	-7055
▁Bazaza	-7056
▁Bisaya	-7057
▁Bizila	-7058
▁Burull	-7059
▁Butkum	-7060
▁Buzazu	-7061
▁Buzizi	-7062
▁Charge	-7063
▁Compla	-7064
▁Copies	-7065
▁Dadani	-7066
▁Dakniš	-7067
▁Decide	-7068
▁Diliya	-7069
▁Duduli	-7070
▁Duduna	-7071
▁Dukšum	-7072
▁Dumeni	-7073
▁Edišin	-7074
▁Enable	-7075
▁Ennnam	-7076
▁Erraya	-7077
▁Follow	-7078
▁Formal	-7079
▁Gadina	-7080
▁Ganaya	-7081
▁Golden	-7082
▁Hattuš	-7083
▁Hatāni	-7084
▁Hudida	-7085
▁Hurama	-7086
▁IKraya	-7087
▁Ibnaya	-7088
▁Ikraya	-7089
▁Ikunum	-7090
▁Ikuppī	-7091
▁Impose	-7092
▁Inanna	-7093
▁Isalia	-7094
▁Izizam	-7095
▁Izēzam	-7096
▁Išhili	-7097
▁Kabaya	-7098
▁Kanani	-7099
Al	-7100
By	-7101
ks	-7102
eru	-7103
ont	-7104
ump	-7105
▁--	-7106
>.""	-7107
Also	-7108
Bird	-7109
arns	-7110
bead	-7111
isum	-7112
pins	-7113
pots	-7114
uhut	-7115
want	-7116
▁160	-7117
▁27!	-7118
▁Aha	-7119
▁Pea	-7120
▁inW	-7121
Abuwa	-7122
Birds	-7123
drawn	-7124
ilšan	-7125
shell	-7126
uenum	-7127
āsiya	-7128
šilli	-7129
▁1500	-7130
▁52.5	-7131
▁Wrap	-7132
▁beru	-7133
▁fell	-7134
▁lump	-7135
▁mont	-7136
▁oxen	-7137
▁thir	-7138
▁toll	-7139
▁tomb	-7140
▁utmo	-7141
akšuna	-7142
atches	-7143
banini	-7144
suffic	-7145
uished	-7146
štaean	-7147
ṭnātum	-7148
▁Could	-7149
▁Peace	-7150
▁Tanaw	-7151
▁abuse	-7152
▁folks	-7153
▁forth	-7154
▁yarns	-7155
Qatatum	-7156
fidious	-7157
▁Ahmaya	-7158
▁Belulu	-7159
▁Bizala	-7160
▁Bēlulu	-7161
▁Eluhut	-7162
▁Eponym	-7163
▁Kanaya	-7164
▁Karawa	-7165
▁Kariya	-7166
▁Kaskan	-7167
▁Kubīdi	-7168
▁Kududu	-7169
▁Kukidi	-7170
▁Kukrin	-7171
▁Kuraya	-7172
▁Kutiya	-7173
▁Kuzari	-7174
▁Kušmum	-7175
▁Laying	-7176
▁Luzini	-7177
▁Maduwa	-7178
▁Maliya	-7179
▁Masaya	-7180
▁Mataga	-7181
▁Nanahi	-7182
▁Nanali	-7183
▁Nether	-7184
▁Nobody	-7185
▁Office	-7186
▁Pazuzu	-7187
▁Purcha	-7188
▁Pususu	-7189
▁Qardum	-7190
▁Really	-7191
▁Rebuff	-7192
▁Return	-7193
▁Rimaši	-7194
▁Salibu	-7195
▁Sasaya	-7196
▁Search	-7197
▁Sikile	-7198
▁Specif	-7199
)'	-7200
17	-7201
27	-7202
;1	-7203
?>	-7204
fa	-7205
fy	-7206
lt	-7207
qa	-7208
!'"	-7209
Con	-7210
don	-7211
lls	-7212
rip	-7213
see	-7214
▁97	-7215
▁ld	-7216
acks	-7217
anis	-7218
face	-7219
gave	-7220
hich	-7221
iddi	-7222
ilim	-7223
itil	-7224
lify	-7225
made	-7226
▁"27	-7227
▁'17	-7228
▁104	-7229
▁121	-7230
▁Kim	-7231
▁Zah	-7232
Hanis	-7233
expen	-7234
liddi	-7235
sacks	-7236
which	-7237
▁3000	-7238
▁felt	-7239
▁grip	-7240
▁haqa	-7241
▁horn	-7242
▁subt	-7243
Should	-7244
cipals	-7245
donkey	-7246
estral	-7247
ulting	-7248
▁1:15;	-7249
▁Akabi	-7250
▁Ilill	-7251
▁Išpun	-7252
▁blind	-7253
▁cound	-7254
▁doesn	-7255
▁earli	-7256
▁enemy	-7257
▁unple	-7258
▁widow	-7259
cestral	-7260
ispered	-7261
▁Kukawa	-7262
▁Malkua	-7263
▁Stairc	-7264
▁Sukaya	-7265
▁Sāsiya	-7266
▁Tarkua	-7267
▁Though	-7268
▁Tiwada	-7269
▁Tuhtuh	-7270
▁Tumana	-7271
▁Tumlia	-7272
▁Tupizi	-7273
▁Unapse	-7274
▁Unapše	-7275
▁Urmeša	-7276
▁Usānum	-7277
▁Uzinum	-7278
▁Uzubis	-7279
▁Ušihat	-7280
▁Wawali	-7281
▁Wazida	-7282
▁Winter	-7283
▁Zahula	-7284
▁Zalidi	-7285
▁Zalidī	-7286
▁Zikayi	-7287
▁Zilpur	-7288
▁Ziqiqi	-7289
▁Zizizi	-7290
▁Zumaya	-7291
▁always	-7292
▁anoint	-7293
▁anonym	-7294
▁anyway	-7295
▁argued	-7296
▁arzālu	-7297
▁boards	-7298
▁bottom	-7299
;3	-7300
>!	-7301
Of	-7302
▁,	-7303
App	-7304
ams	-7305
asy	-7306
pin	-7307
pon	-7308
rab	-7309
tāb	-7310
back	-7311
fare	-7312
lder	-7313
tile	-7314
vior	-7315
▁122	-7316
▁Puš	-7317
▁Uzu	-7318
▁Šad	-7319
hence	-7320
mbers	-7321
nnina	-7322
rgent	-7323
āniya	-7324
▁15:1	-7325
▁Alwa	-7326
▁Nide	-7327
▁easy	-7328
▁exud	-7329
▁form	-7330
▁hura	-7331
▁main	-7332
▁opin	-7333
▁thro	-7334
Annina	-7335
Urgent	-7336
erived	-7337
liment	-7338
mebody	-7339
▁Lamas	-7340
▁Salme	-7341
▁beams	-7342
▁cloth	-7343
▁elder	-7344
▁ilver	-7345
▁zigan	-7346
Appoint	-7347
ulbatum	-7348
▁7.8333	-7349
▁Budaya	-7350
▁Ippalu	-7351
▁Kazuba	-7352
▁Kutaba	-7353
▁Laliya	-7354
▁breast	-7355
▁butter	-7356
▁carted	-7357
▁chases	-7358
▁choose	-7359
▁chosen	-7360
▁commit	-7361
▁compli	-7362
▁confer	-7363
▁conrol	-7364
▁convoy	-7365
▁copied	-7366
▁course	-7367
▁cowrie	-7368
▁create	-7369
▁cubits	-7370
▁darken	-7371
▁debtof	-7372
▁defame	-7373
▁denies	-7374
▁determ	-7375
▁dinner	-7376
▁earned	-7377
▁entail	-7378
▁esteem	-7379
▁expens	-7380
▁extend	-7381
▁exting	-7382
▁falsen	-7383
▁fatten	-7384
▁feared	-7385
▁fibula	-7386
▁flasks	-7387
▁former	-7388
▁fulfil	-7389
▁gained	-7390
▁habiya	-7391
▁hamham	-7392
▁handle	-7393
▁hannan	-7394
▁happen	-7395
▁haraba	-7396
▁harmed	-7397
▁hatika	-7398
▁haššui	-7399
160	-7400
?'"	-7401
Had	-7402
Iam	-7403
bum	-7404
had	-7405
ram	-7406
vis	-7407
yle	-7408
▁"'	-7409
▁1-	-7410
▁1;	-7411
▁39	-7412
▁pu	-7413
▁Šū	-7414
been	-7415
eing	-7416
inam	-7417
must	-7418
▁Bet	-7419
▁Kid	-7420
▁Put	-7421
▁Tam	-7422
▁Was	-7423
▁aim	-7424
▁ble	-7425
▁dim	-7426
▁sas	-7427
dated	-7428
gaššu	-7429
▁"160	-7430
▁11?)	-7431
▁50.5	-7432
▁Ilum	-7433
▁Išma	-7434
▁Lady	-7435
▁dign	-7436
▁fill	-7437
▁glad	-7438
▁hang	-7439
▁inha	-7440
▁lick	-7441
▁ours	-7442
▁Šaha	-7443
▁Abubu	-7444
▁Depri	-7445
▁Kinam	-7446
▁aware	-7447
▁dimin	-7448
▁fills	-7449
▁hanum	-7450
▁ideas	-7451
▁seald	-7452
▁style	-7453
Iamassī	-7454
abattum	-7455
▁Kabiya	-7456
▁Nimmar	-7457
▁Salmum	-7458
▁Tamnia	-7459
▁cheats	-7460
▁family	-7461
▁height	-7462
▁hidden	-7463
▁hiding	-7464
▁higher	-7465
▁hiring	-7466
▁honour	-7467
▁hubazi	-7468
▁hubuzi	-7469
▁hudida	-7470
▁hulana	-7471
▁huluba	-7472
▁hunger	-7473
▁hurata	-7474
▁huršun	-7475
▁implor	-7476
▁inculd	-7477
▁incurs	-7478
▁ingots	-7479
▁itiles	-7480
▁joined	-7481
▁kamaru	-7482
▁kassum	-7483
▁kaššum	-7484
▁learnt	-7485
▁loosen	-7486
▁melted	-7487
▁misery	-7488
▁mutual	-7489
▁niuman	-7490
▁normal	-7491
▁object	-7492
▁oblige	-7493
▁ordeal	-7494
▁origin	-7495
▁period	-7496
▁piglet	-7497
▁plague	-7498
▁prayer	-7499
ox	-7500
)",	-7501
box	-7502
ddi	-7503
iru	-7504
llī	-7505
mat	-7506
wis	-7507
▁"(	-7508
▁(2	-7509
▁Bi	-7510
▁Šī	-7511
Show	-7512
abil	-7513
disk	-7514
wiru	-7515
▁27?	-7516
▁320	-7517
▁Bil	-7518
▁Hut	-7519
▁Lah	-7520
▁hit	-7521
▁sea	-7522
atter	-7523
forth	-7524
kullī	-7525
matān	-7526
shoes	-7527
tered	-7528
Šalim	-7529
▁Iddi	-7530
▁bars	-7531
▁bent	-7532
▁door	-7533
▁dres	-7534
▁isum	-7535
▁knew	-7536
▁ring	-7537
▁Šina	-7538
lating	-7539
mixing	-7540
wisher	-7541
▁Lahut	-7542
▁Pabil	-7543
▁seven	-7544
▁shape	-7545
allment	-7546
immittī	-7547
pendent	-7548
resesnt	-7549
unanadi	-7550
wishers	-7551
▁Advise	-7552
▁Biltum	-7553
▁Kammal	-7554
▁Karria	-7555
▁Lahuta	-7556
▁Liwiru	-7557
▁Narmea	-7558
▁Pester	-7559
▁Rutiya	-7560
▁Suliya	-7561
▁bursts	-7562
▁buyers	-7563
▁fourth	-7564
▁herald	-7565
▁latter	-7566
▁purify	-7567
▁quarts	-7568
▁recoup	-7569
▁remits	-7570
▁repaid	-7571
▁rested	-7572
▁reveal	-7573
▁revolt	-7574
▁robbed	-7575
▁rprice	-7576
▁ruined	-7577
▁rumors	-7578
▁salary	-7579
▁sashes	-7580
▁sating	-7581
▁saving	-7582
▁served	-7583
▁serves	-7584
▁severe	-7585
▁shames	-7586
▁shells	-7587
▁shortf	-7588
▁sickle	-7589
▁signed	-7590
▁simply	-7591
▁singer	-7592
▁speaks	-7593
▁spirit	-7594
▁starve	-7595
▁stores	-7596
▁storey	-7597
▁strain	-7598
▁stroke	-7599
No	-7600
>),	-7601
One	-7602
ahe	-7603
bel	-7604
end	-7605
lah	-7606
ppe	-7607
tiy	-7608
▁()	-7609
▁2,	-7610
▁4?	-7611
▁98	-7612
▁Za	-7613
Will	-7614
ihum	-7615
kunu	-7616
sill	-7617
▁5-<	-7618
▁Air	-7619
▁Amu	-7620
▁dir	-7621
▁hot	-7622
▁log	-7623
▁nis	-7624
▁pos	-7625
payer	-7626
▁Disp	-7627
▁Emua	-7628
▁Ennu	-7629
▁Lend	-7630
▁Taku	-7631
▁behe	-7632
▁mean	-7633
▁pair	-7634
▁sued	-7635
▁sust	-7636
access	-7637
igures	-7638
malkum	-7639
▁Ibkum	-7640
▁Kašši	-7641
▁biltu	-7642
▁Šazua	-7643
▁Duliya	-7644
▁Isihum	-7645
▁Lurmea	-7646
▁annexe	-7647
▁behest	-7648
▁border	-7649
▁deceit	-7650
▁dunned	-7651
▁poured	-7652
▁steppe	-7653
▁stupid	-7654
▁summer	-7655
▁supply	-7656
▁swears	-7657
▁tallān	-7658
▁testif	-7659
▁theirs	-7660
▁though	-7661
▁throat	-7662
▁tisabu	-7663
▁tisābu	-7664
▁toggle	-7665
▁treats	-7666
▁triple	-7667
▁truely	-7668
▁unpaid	-7669
▁unrest	-7670
▁unseal	-7671
▁unsold	-7672
▁uproar	-7673
▁utmost	-7674
▁wailer	-7675
▁wander	-7676
▁wanted	-7677
▁wicked	-7678
▁wooden	-7679
▁yields	-7680
▁Šabaya	-7681
▁Šahama	-7682
▁Šakṣum	-7683
▁Šariša	-7684
▁Šubrum	-7685
▁Šulmim	-7686
▁Šumaya	-7687
▁Šunāya	-7688
▁Šuppil	-7689
▁Šusāya	-7690
▁šikkum	-7691
▁šulhus	-7692
▁Ṣillia	-7693
▁Ṣuliya	-7694
>-0.6666	-7695
>-2.6666	-7696
Question	-7697
Remember	-7698
Tašmētim	-7699
'".	-7700
."<	-7701
.28	-7702
>."	-7703
Out	-7704
mas	-7705
sla	-7706
▁.5	-7707
▁Cl	-7708
▁ME	-7709
▁Wa	-7710
Star	-7711
bate	-7712
give	-7713
sell	-7714
▁23!	-7715
▁Dim	-7716
▁Eri	-7717
▁Idī	-7718
▁Kas	-7719
▁ilī	-7720
▁uot	-7721
ative	-7722
extra	-7723
masum	-7724
slave	-7725
▁IVth	-7726
▁Note	-7727
▁Ziya	-7728
▁allu	-7729
▁rise	-7730
▁rugs	-7731
▁tore	-7732
▁work	-7733
▁Ānah	-7734
giving	-7735
saying	-7736
▁Ariya	-7737
▁Close	-7738
▁Manum	-7739
▁Other	-7740
▁dated	-7741
▁light	-7742
▁silvr	-7743
▁stalk	-7744
▁talks	-7745
▁using	-7746
because	-7747
taklāka	-7748
▁Kasāya	-7749
▁Kukuzi	-7750
▁Nahria	-7751
▁Silver	-7752
▁Taziza	-7753
▁Zidani	-7754
▁debate	-7755
▁emasum	-7756
▁owners	-7757
▁seizes	-7758
▁shamed	-7759
▁slowed	-7760
▁Šazuwa	-7761
Tašmētum	-7762
ahšušana	-7763
alumnies	-7764
anything	-7765
attorney	-7766
bugattum	-7767
capitals	-7768
charging	-7769
decision	-7770
discover	-7771
edicated	-7772
entitled	-7773
erienced	-7774
evidence	-7775
expenses	-7776
finished	-7777
idential	-7778
ifteenth	-7779
imišhuna	-7780
irušakum	-7781
itiative	-7782
lammassī	-7783
mutappil	-7784
pretends	-7785
ragrance	-7786
rudannum	-7787
selected	-7788
shipment	-7789
somebody	-7790
together	-7791
ughtered	-7792
venience	-7793
wardīent	-7794
weighing	-7795
yantalga	-7796
šarrassu	-7797
▁0.5(?)<	-7798
▁1.66666	-7799
May	-7800
ahī	-7801
▁""	-7802
▁"7	-7803
▁("	-7804
▁5(	-7805
Ilum	-7806
Look	-7807
diya	-7808
itra	-7809
rage	-7810
rase	-7811
Šuen	-7812
▁10,	-7813
▁105	-7814
▁108	-7815
▁Ama	-7816
▁Dil	-7817
month	-7818
▁0.5,	-7819
▁Emem	-7820
▁hems	-7821
▁niya	-7822
▁Šēdu	-7823
buying	-7824
iškinu	-7825
▁Erase	-7826
▁eight	-7827
▁remit	-7828
▁shame	-7829
▁Šuaya	-7830
>9.3333	-7831
leather	-7832
▁Alulur	-7833
▁Dilaya	-7834
▁10.1666	-7835
▁10.8333	-7836
▁12.6666	-7837
▁12.8333	-7838
▁13.1666	-7839
▁14.3333	-7840
▁16.3333	-7841
▁19.6666	-7842
▁20.6666	-7843
▁21.3333	-7844
▁22.6666	-7845
▁23.3333	-7846
▁23.8333	-7847
▁24.3333	-7848
▁24.6666	-7849
▁25.3333	-7850
▁26.3333	-7851
▁28.6666	-7852
▁29.3333	-7853
▁3.6666?	-7854
▁30.6666	-7855
▁30.8333	-7856
▁31.6666	-7857
▁33.6666	-7858
▁35.3333	-7859
▁36.6666	-7860
▁37.3333	-7861
▁40.3333	-7862
▁40.6666	-7863
▁40.8333	-7864
▁41.1666	-7865
▁42.8333	-7866
▁45.3333	-7867
▁5.8333?	-7868
▁50.6666	-7869
▁50.8333	-7870
▁56.6666	-7871
▁58.8333	-7872
▁59.6666	-7873
▁80.8333	-7874
▁Abaraya	-7875
▁Abasiya	-7876
▁Abduata	-7877
▁Adallal	-7878
▁Aduduwa	-7879
▁Akiānum	-7880
▁Alulāya	-7881
▁Amyriya	-7882
▁Anisaba	-7883
▁Anuguti	-7884
▁Anunuwa	-7885
▁Arrange	-7886
▁Atūriya	-7887
▁Azukaya	-7888
▁Azunaya	-7889
▁Ašašabi	-7890
▁Aššuruš	-7891
▁Babalum	-7892
▁Balṭuwa	-7893
▁Barimea	-7894
▁Barānum	-7895
▁Belānum	-7896
▁Between	-7897
▁Brother	-7898
▁Buhitar	-7899
▁Buztāya	-7900
▁Certify	-7901
▁Consequ	-7902
▁Contest	-7903
▁Deprive	-7904
▁Dudurum	-7905
▁Dumqaya	-7906
▁Dumqiya	-7907
▁Dunniya	-7908
▁Elabaya	-7909
▁Elāliya	-7910
▁Emmerum	-7911
▁Ennanat	-7912
▁Ennānim	-7913
▁Ewarnum	-7914
▁Exactly	-7915
▁Forward	-7916
▁GAZanum	-7917
▁Hadītum	-7918
▁Hananna	-7919
▁Hinnaya	-7920
▁Hinnāya	-7921
▁IZkanum	-7922
▁Ikuwaya	-7923
▁Inspect	-7924
▁Issūrik	-7925
▁Itūraya	-7926
▁Kabriya	-7927
▁Kabātum	-7928
▁Kakkaba	-7929
▁Kakkiya	-7930
▁Kakkuwa	-7931
▁Kalamur	-7932
▁Karways	-7933
▁Kaskanu	-7934
▁Kayatum	-7935
▁Kayātum	-7936
▁Kikkiya	-7937
▁Kudānum	-7938
▁Kuluklu	-7939
▁Kuluman	-7940
▁Kurbiya	-7941
▁Kutibiš	-7942
▁Kuzāzum	-7943
▁Kūnilum	-7944
▁Labarša	-7945
▁Lamassi	-7946
▁Latarāk	-7947
▁Libbiya	-7948
▁Lāqēpum	-7949
▁Malitil	-7950
▁Mannuba	-7951
▁Mannuwa	-7952
▁MarKuti	-7953
▁Marihšu	-7954
▁Maršana	-7955
▁Menanum	-7956
▁Missive	-7957
▁Muanika	-7958
▁Mīšarum	-7959
▁Nadibum	-7960
▁Nakiled	-7961
▁Nanakaš	-7962
▁Nenassa	-7963
▁Obverse	-7964
▁Pithana	-7965
▁Qatātum	-7966
▁Qaṭṭara	-7967
▁Qaṭṭarā	-7968
▁Rimānum	-7969
▁Rēmānum	-7970
▁Saktāya	-7971
▁Sikuhum	-7972
▁Sūsānum	-7973
▁Talhama	-7974
▁Tanušta	-7975
▁Tatardu	-7976
▁Ukappin	-7977
▁Unipsum	-7978
▁Usubuha	-7979
▁Usāriya	-7980
▁Whereas	-7981
▁Youplur	-7982
▁Zaktaya	-7983
▁accused	-7984
▁actions	-7985
▁allowed	-7986
▁altered	-7987
▁andfrom	-7988
▁angents	-7989
▁annoyed	-7990
▁appease	-7991
▁ashamed	-7992
▁assumed	-7993
▁attempt	-7994
▁attends	-7995
▁availed	-7996
▁benefit	-7997
▁blocked	-7998
▁borowed	-7999
▁borther	-8000
▁calling	-8001
▁calming	-8002
▁caraban	-8003
▁careful	-8004
▁catches	-8005
▁causing	-8006
▁central	-8007
▁cleaned	-8008
▁closely	-8009
▁clothed	-8010
▁company	-8011
▁consume	-8012
▁content	-8013
▁context	-8014
▁crossed	-8015
▁debited	-8016
▁debtors	-8017
▁deceive	-8018
▁deducts	-8019
▁deprive	-8020
▁derived	-8021
▁details	-8022
▁dignity	-8023
▁disavow	-8024
▁disdain	-8025
▁disease	-8026
▁divided	-8027
▁donated	-8028
▁dragged	-8029
▁encased	-8030
▁engaged	-8031
▁eponymn	-8032
▁epoynmy	-8033
▁exerted	-8034
▁explain	-8035
▁falling	-8036
▁figures	-8037
▁flaring	-8038
▁forgive	-8039
▁fortune	-8040
▁getting	-8041
▁gladden	-8042
▁granted	-8043
▁grievan	-8044
▁halitka	-8045
▁hamalia	-8046
▁hanging	-8047
▁hanigga	-8048
▁hanānum	-8049
▁harabet	-8050
▁harabiš	-8051
▁harziga	-8052
▁haršāya	-8053
▁hawīlum	-8054
▁heading	-8055
▁hostile	-8056
▁huburhe	-8057
▁hunniya	-8058
▁husārum	-8059
▁intends	-8060
▁interet	-8061
▁invited	-8062
▁involve	-8063
▁jewelry	-8064
▁justice	-8065
▁knowing	-8066
▁lacking	-8067
▁leaders	-8068
▁lighten	-8069
▁managed	-8070
▁manages	-8071
▁melting	-8072
▁members	-8073
▁minimum	-8074
▁misdeed	-8075
▁morning	-8076
▁nibraru	-8077
▁nibrāru	-8078
▁nullify	-8079
▁obliged	-8080
▁offense	-8081
▁ofthree	-8082
▁operate	-8083
▁opinion	-8084
▁outward	-8085
▁pasallu	-8086
▁pasture	-8087
▁penalty	-8088
▁pouring	-8089
▁praying	-8090
▁preence	-8091
▁prevail	-8092
▁prevent	-8093
▁procure	-8094
▁pursuit	-8095
▁qablītu	-8096
▁rations	-8097
▁reasons	-8098
▁recount	-8099
▁rejoice	-8100
▁relying	-8101
▁repairs	-8102
▁replace	-8103
▁replied	-8104
▁request	-8105
▁reveals	-8106
▁revived	-8107
▁rituals	-8108
▁robbing	-8109
▁rumours	-8110
▁saffron	-8111
▁savings	-8112
▁scarves	-8113
▁seeking	-8114
▁sheekls	-8115
▁shining	-8116
▁sickels	-8117
▁silvers	-8118
▁similar	-8119
▁sisters	-8120
▁skekels	-8121
▁spirits	-8122
▁spotted	-8123
▁stabled	-8124
▁started	-8125
▁steward	-8126
▁stocked	-8127
▁storing	-8128
▁supannu	-8129
▁surface	-8130
▁surpass	-8131
▁talking	-8132
▁tallānu	-8133
▁testify	-8134
▁testing	-8135
▁theCity	-8136
▁toiling	-8137
▁turmoil	-8138
▁venture	-8139
▁violent	-8140
▁warfare	-8141
▁warning	-8142
▁weapons	-8143
▁welfare	-8144
▁whereby	-8145
▁withour	-8146
▁woolfor	-8147
▁woollen	-8148
▁younger	-8149
▁Šadahar	-8150
▁Šilmašu	-8151
▁Šuhanum	-8152
▁Šuhunum	-8153
▁Šuliman	-8154
▁Ṣulliya	-8155
Belonging	-8156
Entrusted	-8157
appašatta	-8158
appearing	-8159
belonging	-8160
certified	-8161
nātumhave	-8162
officials	-8163
ornaments	-8164
represent	-8165
reviously	-8166
▁1:6.3333	-8167
▁Ababayai	-8168
▁Abušalim	-8169
▁Akimātum	-8170
▁Akkadiya	-8171
▁Aputriya	-8172
▁Arunahšu	-8173
▁Aršiahšu	-8174
▁Asdunani	-8175
▁Babašiba	-8176
▁Babbilum	-8177
▁Badatiya	-8178
▁Belalaya	-8179
▁Burallum	-8180
▁Burullum	-8181
▁Buṭnātum	-8182
▁Compared	-8183
▁Conclude	-8184
▁Confront	-8185
▁Dispatch	-8186
▁Eddināya	-8187
▁Enišarum	-8188
▁Ennumāya	-8189
▁Gabattum	-8190
▁Hanaknak	-8191
▁Happuaša	-8192
▁Harimtum	-8193
▁Herewith	-8194
▁Ikūnpīya	-8195
▁Ikūppiya	-8196
▁Imlikaya	-8197
▁Išhianit	-8198
▁Kanwarta	-8199
▁Kapatiya	-8200
▁Kililsum	-8201
▁Kukuziya	-8202
▁Kumdānum	-8203
▁Kupilšan	-8204
▁Kuprurak	-8205
▁Kurašmiš	-8206
▁Kurkurum	-8207
▁Kusatiya	-8208
▁Lamassum	-8209
▁Luhrahna	-8210
▁Madubaya	-8211
▁Mannumma	-8212
▁Marušala	-8213
▁Nikkilet	-8214
▁Nuhšātum	-8215
▁Pušqānum	-8216
▁Question	-8217
▁Sasallum	-8218
▁Sassātum	-8219
▁Serserum	-8220
▁Specific	-8221
▁Starting	-8222
▁Tahazira	-8223
▁Tahuruwa	-8224
▁Tamuriya	-8225
▁Tapaggaš	-8226
▁Tarhišan	-8227
▁Tarhuala	-8228
▁Tarikuda	-8229
▁Tašmētum	-8230
▁Tismurna	-8231
▁Together	-8232
▁Tomorrow	-8233
▁Tumeliya	-8234
▁Ubarzaya	-8235
▁Usuranum	-8236
▁Ušihatum	-8237
▁Wahšušna	-8238
▁Walhašna	-8239
▁Waliwali	-8240
▁Wardānum	-8241
▁Wherever	-8242
▁Zunanadi	-8243
▁Zuziziya	-8244
▁accreued	-8245
▁accusers	-8246
▁acquires	-8247
▁activity	-8248
▁actually	-8249
▁advisors	-8250
▁alulitum	-8251
▁announce	-8252
▁anointed	-8253
▁assemble	-8254
▁attacked	-8255
▁attended	-8256
▁behaving	-8257
▁behavior	-8258
▁blessing	-8259
▁bothered	-8260
▁breaking	-8261
▁buisness	-8262
▁burdened	-8263
▁capacity	-8264
▁caravans	-8265
▁ceremony	-8266
▁charging	-8267
▁cheating	-8268
▁clemency	-8269
▁commands	-8270
▁contains	-8271
▁criminal	-8272
▁crossing	-8273
▁customer	-8274
▁darkened	-8275
▁darkness	-8276
▁deathbed	-8277
▁deficits	-8278
▁definite	-8279
▁delaying	-8280
▁descends	-8281
▁despatch	-8282
▁destined	-8283
▁discover	-8284
▁disorder	-8285
▁disputed	-8286
▁distrain	-8287
▁diviners	-8288
▁drinking	-8289
▁dulbatum	-8290
▁earliest	-8291
▁engaging	-8292
▁entailed	-8293
▁estrange	-8294
▁everyone	-8295
▁expelled	-8296
▁gardener	-8297
▁greeting	-8298
▁grinding	-8299
▁guarding	-8300
▁habtuniš	-8301
▁haburata	-8302
▁harimtum	-8303
▁haššuili	-8304
▁hudubēlī	-8305
▁humašana	-8306
▁hunahuna	-8307
▁implored	-8308
▁improper	-8309
▁improves	-8310
▁included	-8311
▁infested	-8312
▁instance	-8313
▁insuffic	-8314
▁istemple	-8315
▁jealousy	-8316
▁measured	-8317
▁meetings	-8318
▁merhcant	-8319
▁moreover	-8320
▁movables	-8321
▁multiply	-8322
▁musician	-8323
▁occurred	-8324
▁offended	-8325
▁opponent	-8326
▁opposite	-8327
▁organise	-8328
▁original	-8329
▁pardoned	-8330
▁pasallum	-8331
▁perished	-8332
▁personal	-8333
▁planning	-8334
▁pleasant	-8335
▁pleasing	-8336
▁pomegran	-8337
▁portions	-8338
▁procured	-8339
▁properly	-8340
▁proposal	-8341
▁purposes	-8342
▁reaction	-8343
▁rebutted	-8344
▁recieves	-8345
▁redeemed	-8346
▁refusing	-8347
▁relating	-8348
▁reminded	-8349
▁removing	-8350
▁replaced	-8351
▁replaces	-8352
▁response	-8353
▁resulted	-8354
▁salvaged	-8355
▁saptinnu	-8356
▁securing	-8357
▁securtiy	-8358
▁shearing	-8359
▁shortage	-8360
▁shoulder	-8361
▁smuggler	-8362
▁soldiers	-8363
▁solution	-8364
▁squander	-8365
▁starting	-8366
▁stripped	-8367
▁striving	-8368
▁suitable	-8369
▁sundries	-8370
▁supannus	-8371
▁supplied	-8372
▁supports	-8373
▁tamkarum	-8374
▁tamkārum	-8375
▁tranport	-8376
▁transmit	-8377
▁traveled	-8378
▁traveler	-8379
▁treating	-8380
▁troubled	-8381
▁unlawful	-8382
▁unopened	-8383
▁unsealed	-8384
▁varioius	-8385
▁vidicate	-8386
▁wagonsin	-8387
▁wahtever	-8388
▁whenever	-8389
▁wherepon	-8390
▁whithout	-8391
▁witessed	-8392
▁Šaktunua	-8393
▁Šalahšua	-8394
▁Šašasama	-8395
▁Šubarean	-8396
▁Šubarian	-8397
▁Šuppibra	-8398
▁Ṣallāmun	-8399
Concerning	-8400
Henceforth	-8401
Lamassutum	-8402
confirming	-8403
containing	-8404
discovered	-8405
equivalent	-8406
everything	-8407
implements	-8408
permission	-8409
profitable	-8410
witnessing	-8411
▁0.3333(?)	-8412
▁Abarsisum	-8413
▁Althought	-8414
▁Azitariya	-8415
▁Balzuenum	-8416
▁Beginning	-8417
▁Bēlassunu	-8418
▁Complaint	-8419
▁Confident	-8420
▁Extradite	-8421
▁Following	-8422
▁GADUbatum	-8423
▁Gentleman	-8424
▁Hurdunani	-8425
▁Ilaliuman	-8426
▁Iyantalga	-8427
▁Kalanašar	-8428
▁Kammaliya	-8429
▁Kanwartan	-8430
▁Kapattiya	-8431
▁Karnikašu	-8432
▁Karzilili	-8433
▁Kilinuman	-8434
▁Kilirians	-8435
▁Kukulanum	-8436
▁Kukurānum	-8437
▁Kunanamit	-8438
▁Kusilānum	-8439
▁Kususārum	-8440
▁Kuzuzarum	-8441
▁Kuzuzārum	-8442
▁Luhuduman	-8443
▁Malawašhe	-8444
▁Mezitānum	-8445
▁Mumulānum	-8446
▁Otherwise	-8447
▁Pilahānum	-8448
▁Purchases	-8449
▁Puzurkunu	-8450
▁Salatuwar	-8451
▁Smuggling	-8452
▁Specified	-8453
▁Staircase	-8454
▁Tanawišti	-8455
▁Testament	-8456
▁Titinatal	-8457
▁Uzubiskum	-8458
▁Uzubiškum	-8459
▁Washaniya	-8460
▁Wašanalam	-8461
▁Wašunalam	-8462
▁Zilpuriya	-8463
▁Zimišhuna	-8464
▁abandoned	-8465
▁abundance	-8466
▁accompany	-8467
▁alienated	-8468
▁ancestral	-8469
▁appealing	-8470
▁assisting	-8471
▁behaviour	-8472
▁belittles	-8473
▁calculate	-8474
▁calumnies	-8475
▁cauldrons	-8476
▁cautioned	-8477
▁commander	-8478
▁committed	-8479
▁committee	-8480
▁concering	-8481
▁consisted	-8482
▁consuming	-8483
▁contantly	-8484
▁correctly	-8485
▁cupbearer	-8486
▁daughters	-8487
▁declaring	-8488
▁dedicated	-8489
▁demanding	-8490
▁denounced	-8491
▁destroyed	-8492
▁determine	-8493
▁dirtiness	-8494
▁disclosed	-8495
▁disrupted	-8496
▁eachother	-8497
▁elsewhere	-8498
▁embroiled	-8499
▁exchanged	-8500
▁executors	-8501
▁exhausted	-8502
▁expensive	-8503
▁falseness	-8504
▁fattening	-8505
▁favorable	-8506
▁favorably	-8507
▁fifteenth	-8508
▁fireplace	-8509
▁forbidden	-8510
▁forwarded	-8511
▁fragrance	-8512
▁furniture	-8513
▁halgiaššu	-8514
▁hamhamtum	-8515
▁hamizānum	-8516
▁hannāniya	-8517
▁happiahšu	-8518
▁happiānum	-8519
▁hatranani	-8520
▁heartland	-8521
▁imploring	-8522
▁incapable	-8523
▁inculding	-8524
▁inherited	-8525
▁installed	-8526
▁insulting	-8527
▁inventory	-8528
▁involving	-8529
▁mountains	-8530
▁otherwise	-8531
▁outfitted	-8532
▁outsiders	-8533
▁outskirts	-8534
▁overnight	-8535
▁personnel	-8536
▁pestering	-8537
▁posession	-8538
▁precisely	-8539
▁procedure	-8540
▁recipient	-8541
▁regarding	-8542
▁releasing	-8543
▁remitting	-8544
▁repressed	-8545
▁requested	-8546
▁residents	-8547
▁resorting	-8548
▁respected	-8549
▁resulting	-8550
▁safeguard	-8551
▁shipments	-8552
▁smugglers	-8553
▁surcharge	-8554
▁terrified	-8555
▁thousands	-8556
▁threefold	-8557
▁troubling	-8558
▁validated	-8559
▁valudated	-8560
▁vindicate	-8561
▁wagonload	-8562
▁whispered	-8563
▁yellowish	-8564
▁Šabanātum	-8565
▁Šakiškinu	-8566
▁Šarakšuna	-8567
▁Šarbunuwa	-8568
▁Šimatānum	-8569
▁Šinanātum	-8570
▁Šuhurpiya	-8571
transaction	-8572
transported	-8573
▁Abirušakum	-8574
▁Apparently	-8575
▁Arašihatal	-8576
▁Aštahšušar	-8577
▁Baniharsum	-8578
▁Conditions	-8579
▁Contracted	-8580
▁Hasutayali	-8581
▁Hunadaduam	-8582
▁Kurkurānum	-8583
▁Lamassatum	-8584
▁Lamassitim	-8585
▁Luhsaddiya	-8586
▁Previously	-8587
▁Sinahuttum	-8588
▁Takuštaean	-8589
▁Tappašatta	-8590
▁Tuhtuhānum	-8591
▁Ušbugattum	-8592
▁Uštahšušar	-8593
▁Zizulayali	-8594
▁acceptable	-8595
▁appearance	-8596
▁appointing	-8597
▁belongings	-8598
▁blelonging	-8599
▁collection	-8600
▁commission	-8601
▁committing	-8602
▁complaints	-8603
▁compliance	-8604
▁confirming	-8605
▁considered	-8606
▁controller	-8607
▁depression	-8608
▁desposited	-8609
▁destroying	-8610
▁determined	-8611
▁disappoint	-8612
▁duplicates	-8613
▁encourrage	-8614
▁encumbered	-8615
▁exhaustive	-8616
▁exudations	-8617
▁falsehoods	-8618
▁financiers	-8619
▁friendship	-8620
▁grievances	-8621
▁haršunuman	-8622
▁headstrong	-8623
▁imperative	-8624
▁impossible	-8625
▁includeing	-8626
▁inhabitant	-8627
▁initiative	-8628
▁inspection	-8629
▁instalment	-8630
▁intentions	-8631
▁intervened	-8632
▁litigation	-8633
▁menuniānus	-8634
▁misconduct	-8635
▁objections	-8636
▁obligation	-8637
▁overturned	-8638
▁packsaddle	-8639
▁perfidious	-8640
▁persistent	-8641
▁practicing	-8642
▁preferably	-8643
▁pressuring	-8644
▁principals	-8645
▁production	-8646
▁profitably	-8647
▁quarrelled	-8648
▁reassuring	-8649
▁recognized	-8650
▁reimbursed	-8651
▁represesnt	-8652
▁reputation	-8653
▁resolution	-8654
▁seperately	-8655
▁shortfalls	-8656
▁specialist	-8657
▁standstill	-8658
▁strengthen	-8659
▁substitute	-8660
▁subtracted	-8661
▁successive	-8662
▁supplement	-8663
▁suppliment	-8664
▁sustenance	-8665
▁thereafter	-8666
▁transgress	-8667
▁unpleasant	-8668
▁upbringing	-8669
▁withnesses	-8670
▁Šahišnuman	-8671
▁Šarnigaššu	-8672
▁Šimašitiša	-8673
▁Šinahuttum	-8674
▁Šuppinuman	-8675
▁ṣdocuments	-8676
▁Netherworld	-8677
▁Sahrudannum	-8678
▁Siktihasuti	-8679
▁accompanied	-8680
▁anonymously	-8681
▁approaching	-8682
▁appropriate	-8683
▁capitalists	-8684
▁compensated	-8685
▁confiscated	-8686
▁considering	-8687
▁contracting	-8688
▁convenience	-8689
▁corresponds	-8690
▁denunciated	-8691
▁destination	-8692
▁diminishing	-8693
▁disappeared	-8694
▁dispatching	-8695
▁effectuated	-8696
▁encouraging	-8697
▁established	-8698
▁expenditure	-8699
▁experienced	-8700
▁frightening	-8701
▁inWahšušana	-8702
▁independent	-8703
▁inheritance	-8704
▁installment	-8705
▁instalments	-8706
▁instuctions	-8707
▁interpretor	-8708
▁interrogate	-8709
▁maintenance	-8710
▁maltreating	-8711
▁partnership	-8712
▁petitioning	-8713
▁realisation	-8714
▁safekeeping	-8715
▁slaughtered	-8716
▁substantial	-8717
▁superseeded	-8718
▁translation	-8719
▁understands	-8720
▁Šuppiluliya	-8721
▁Consequently	-8722
▁Specifically	-8723
▁collectively	-8724
▁confidential	-8725
▁consignments	-8726
▁establishing	-8727
▁extinguished	-8728
▁friendliness	-8729
▁guarantorThe	-8730
▁insufficient	-8731
▁interrogated	-8732
▁pomegranates	-8733
▁priestessand	-8734
▁satisfaction	-8735
▁shareholders	-8736
▁successively	-8737
▁transporters	-8738
wardīentrusted	-8739
▁Enannātumhave	-8740
▁Specification	-8741
▁Usubuhamazaya	-8742
▁argumentation	-8743
▁reimbursement	-8744
▁saddleclothes	-8745
▁shekelswithin	-8746
▁silverQatatum	-8747
▁specification	-8748
▁understanding	-8749
representatives	-8750
▁aforementioned	-8751
▁leatherworkers	-8752
▁representation	-8753
▁specifications	-8754
1.1	-8755
Išh	-8756
VII	-8757
aig	-8758
cie	-8759
egs	-8760
ffe	-8761
hhu	-8762
hie	-8763
ipi	-8764
ipt	-8765
kia	-8766
luk	-8767
nci	-8768
nig	-8769
niy	-8770
oom	-8771
oys	-8772
pty	-8773
rnu	-8774
rši	-8775
sig	-8776
suf	-8777
suh	-8778
uff	-8779
uhp	-8780
uhr	-8781
uhs	-8782
upb	-8783
upk	-8784
uṣu	-8785
uṣū	-8786
wsu	-8787
yie	-8788
āṣī	-8789
ūqī	-8790
▁Ān	-8791
Tašm	-8792
addl	-8793
addu	-8794
ahar	-8795
ahsi	-8796
alka	-8797
alks	-8798
amsi	-8799
apš	-8800
awn	-8801
pac	-8802
rys	-8803
wry	-8804
▁Ṣu	-8805
acri	-8806
alac	-8807
amiq	-8808
ants	-8809
apat	-8810
apis	-8811
appi	-8812
apru	-8813
apse	-8814
arhu	-8815
arry	-8816
asks	-8817
athb	-8818
ause	-8819
aved	-8820
awal	-8821
azub	-8822
aštī	-8823
bare	-8824
blem	-8825
curs	-8826
duat	-8827
dvis	-8828
ects	-8829
eeds	-8830
eize	-8831
ells	-8832
emuq	-8833
fall	-8834
feri	-8835
fits	-8836
fron	-8837
gled	-8838
gued	-8839
hars	-8840
ials	-8841
ibrā	-8842
igan	-8843
igat	-8844
ildo	-8845
inds	-8846
ipal	-8847
irep	-8848
irls	-8849
isua	-8850
iths	-8851
iwar	-8852
kuka	-8853
kuzi	-8854
ladd	-8855
libš	-8856
lted	-8857
lulu	-8858
mble	-8859
medi	-8860
mham	-8861
mind	-8862
mith	-8863
mlik	-8864
nced	-8865
ndsh	-8866
niga	-8867
nnoy	-8868
nuba	-8869
obod	-8870
ocks	-8871
omer	-8872
onlo	-8873
peri	-8874
perm	-8875
plor	-8876
pons	-8877
ppos	-8878
prur	-8879
psum	-8880
raka	-8881
raru	-8882
raws	-8883
rged	-8884
rinc	-8885
rind	-8886
roac	-8887
rodu	-8888
rrad	-8889
rupt	-8890
ruzi	-8891
sadd	-8892
tabb	-8893
tant	-8894
tata	-8895
ties	-8896
uaša	-8897
ubaz	-8898
uced	-8899
6.8	-8900
9.8	-8901
?).	-8902
afe	-8903
bni	-8904
emu	-8905
emū	-8906
?)."	-8907
Rabi	-8908
aint	-8909
cred	-8910
emed	-8911
emor	-8912
fili	-8913
gree	-8914
ints	-8915
iššu	-8916
list	-8917
olds	-8918
uggl	-8919
uhud	-8920
uhus	-8921
uhuz	-8922
uild	-8923
uilt	-8924
ulhu	-8925
ults	-8926
upiz	-8927
upka	-8928
urmo	-8929
urpl	-8930
vict	-8931
vous	-8932
wada	-8933
wala	-8934
weda	-8935
wedā	-8936
wful	-8937
zida	-8938
zuza	-8939
ādum	-8940
ālik	-8941
āštī	-8942
ēdum	-8943
ētim	-8944
ētum	-8945
šili	-8946
ššui	-8947
ššuw	-8948
▁(1-	-8949
▁0.8	-8950
▁13-	-8951
▁13.	-8952
▁3.8	-8953
▁7.8	-8954
▁8.1	-8955
▁Agu	-8956
▁Ahm	-8957
▁Atā	-8958
▁Beb	-8959
▁Beg	-8960
▁Imd	-8961
▁Irb	-8962
▁Maṣ	-8963
▁Mīš	-8964
▁Nap	-8965
▁Naz	-8966
▁Nuh	-8967
▁Tap	-8968
▁Taw	-8969
▁Tho	-8970
▁Uka	-8971
▁Una	-8972
▁Urd	-8973
▁Urg	-8974
▁Urā	-8975
▁Urš	-8976
▁Ušb	-8977
▁Ušm	-8978
▁Ušt	-8979
▁Ver	-8980
▁Zaz	-8981
▁Ziq	-8982
▁emb	-8983
▁enj	-8984
▁env	-8985
▁fix	-8986
▁ket	-8987
▁lif	-8988
▁mih	-8989
▁obj	-8990
▁roy	-8991
▁sap	-8992
▁sig	-8993
▁spl	-8994
▁suc	-8995
▁yie	-8996
▁Ṣal	-8997
Zanum	-8998
abala	-8999
bun	-9000
clo	-9001
mdi	-9002
nun	-9003
unc	-9004
une	-9005
ung	-9006
unp	-9007
aldi	-9008
alib	-9009
anni	-9010
anun	-9011
asib	-9012
cert	-9013
clot	-9014
eces	-9015
eves	-9016
ghed	-9017
ibil	-9018
išna	-9019
kann	-9020
lecl	-9021
lves	-9022
mtum	-9023
pert	-9024
ppib	-9025
ppun	-9026
reef	-9027
utib	-9028
▁185	-9029
▁Ilā	-9030
▁Kib	-9031
▁Off	-9032
▁fib	-9033
▁fun	-9034
Wahšu	-9035
ablis	-9036
acred	-9037
adadu	-9038
aduam	-9039
ahhur	-9040
akuwa	-9041
alaba	-9042
alace	-9043
alary	-9044
alidī	-9045
alked	-9046
alled	-9047
allen	-9048
allān	-9049
almum	-9050
alous	-9051
anaka	-9052
anali	-9053
anana	-9054
anani	-9055
anged	-9056
annus	-9057
anted	-9058
appil	-9059
arant	-9060
araši	-9061
arked	-9062
arken	-9063
arley	-9064
arrow	-9065
asall	-9066
ashan	-9067
aterp	-9068
atisf	-9069
attus	-9070
atuar	-9071
azaya	-9072
azida	-9073
azuwa	-9074
azuzu	-9075
ašall	-9076
ašhan	-9077
burse	-9078
cased	-9079
ccord	-9080
cedur	-9081
ckles	-9082
dnāya	-9083
duata	-9084
dātum	-9085
ealed	-9086
ecide	-9087
eckon	-9088
ected	-9089
edeem	-9090
edges	-9091
eemed	-9092
enced	-9093
enoun	-9094
equiv	-9095
erful	-9096
ficit	-9097
fitab	-9098
front	-9099
Rep	-9100
huš	-9101
iol	-9102
išm	-9103
išā	-9104
išū	-9105
klā	-9106
miš	-9107
tuš	-9108
ups	-9109
vol	-9110
wiš	-9111
xwo	-9112
zuw	-9113
ēdā	-9114
šiš	-9115
abiš	-9116
burn	-9117
heep	-9118
idea	-9119
imuš	-9120
lālī	-9121
nabi	-9122
oose	-9123
rant	-9124
shly	-9125
tama	-9126
urna	-9127
urns	-9128
ušta	-9129
ušub	-9130
āhum	-9131
ṭara	-9132
▁30.	-9133
▁Ibn	-9134
▁Iṣm	-9135
▁foc	-9136
▁hiš	-9137
▁neg	-9138
▁nob	-9139
▁suf	-9140
▁wov	-9141
ahhum	-9142
antee	-9143
arawa	-9144
arrum	-9145
arves	-9146
atila	-9147
atrum	-9148
eping	-9149
ggest	-9150
ggled	-9151
gster	-9152
hasut	-9153
hriya	-9154
hurpi	-9155
hāqum	-9156
iahšu	-9157
iated	-9158
ibaya	-9159
ieved	-9160
iffer	-9161
iffic	-9162
ikile	-9163
ikkit	-9164
illuš	-9165
iltit	-9166
ilulu	-9167
impos	-9168
inded	-9169
inite	-9170
intly	-9171
inued	-9172
ināti	-9173
ipals	-9174
ipped	-9175
irits	-9176
irmed	-9177
itani	-9178
itant	-9179
ithin	-9180
itory	-9181
itrat	-9182
ivide	-9183
ixing	-9184
izila	-9185
iškan	-9186
kkall	-9187
kušar	-9188
kārum	-9189
kātum	-9190
laced	-9191
lacks	-9192
layed	-9193
liged	-9194
lived	-9195
lting	-9196
lvent	-9197
manag	-9198
mands	-9199
Hud	-9200
bol	-9201
dud	-9202
lud	-9203
nge	-9204
oge	-9205
olv	-9206
rge	-9207
udg	-9208
▁'4	-9209
▁Ām	-9210
alud	-9211
enun	-9212
hree	-9213
ipul	-9214
irdu	-9215
lige	-9216
nged	-9217
oads	-9218
olle	-9219
tors	-9220
tunu	-9221
uded	-9222
udge	-9223
udid	-9224
udum	-9225
ullu	-9226
vors	-9227
▁Agi	-9228
▁kep	-9229
▁loa	-9230
▁loc	-9231
▁loo	-9232
▁pac	-9233
▁unp	-9234
▁vin	-9235
abart	-9236
arted	-9237
artla	-9238
eally	-9239
ially	-9240
itors	-9241
lears	-9242
massa	-9243
mutab	-9244
nable	-9245
ndary	-9246
ndles	-9247
ndred	-9248
nnāya	-9249
nātim	-9250
odged	-9251
olfor	-9252
olved	-9253
ompan	-9254
ongdo	-9255
onsin	-9256
opped	-9257
osely	-9258
oving	-9259
owled	-9260
paign	-9261
pannu	-9262
parti	-9263
pecif	-9264
perse	-9265
pkian	-9266
pleas	-9267
ppilu	-9268
qūdum	-9269
rabiā	-9270
rader	-9271
ranat	-9272
reads	-9273
reats	-9274
reely	-9275
refer	-9276
resol	-9277
retly	-9278
rging	-9279
ribut	-9280
riend	-9281
rific	-9282
riple	-9283
rofit	-9284
rogat	-9285
rowed	-9286
rātim	-9287
sated	-9288
shara	-9289
ssist	-9290
stant	-9291
suits	-9292
table	-9293
tains	-9294
tests	-9295
tract	-9296
treat	-9297
tumha	-9298
turns	-9299
dic	-9300
epe	-9301
ici	-9302
kāt	-9303
ope	-9304
run	-9305
ātē	-9306
āšt	-9307
▁7.	-9308
abāt	-9309
alpe	-9310
arae	-9311
artn	-9312
ayāt	-9313
ctic	-9314
dock	-9315
duwa	-9316
espe	-9317
fers	-9318
ical	-9319
iced	-9320
ices	-9321
icit	-9322
idic	-9323
kers	-9324
lers	-9325
luwa	-9326
ners	-9327
pell	-9328
rink	-9329
ripe	-9330
uwar	-9331
zuwa	-9332
ānāt	-9333
ātān	-9334
ūbum	-9335
ūssu	-9336
ṭuwa	-9337
▁Emm	-9338
▁Zar	-9339
▁Zim	-9340
▁Zub	-9341
▁alw	-9342
▁arb	-9343
▁lap	-9344
▁que	-9345
▁qui	-9346
aders	-9347
anini	-9348
artic	-9349
artur	-9350
ayers	-9351
enašš	-9352
erson	-9353
eruwa	-9354
eturn	-9355
ience	-9356
lders	-9357
respe	-9358
uards	-9359
ubara	-9360
ubišk	-9361
ubuzi	-9362
udaya	-9363
uddum	-9364
udiki	-9365
uduwa	-9366
uggle	-9367
uhama	-9368
uhniš	-9369
ukuwa	-9370
ulted	-9371
uluba	-9372
ululi	-9373
ululī	-9374
ulāya	-9375
umors	-9376
unate	-9377
unger	-9378
ungry	-9379
urall	-9380
urama	-9381
urred	-9382
urrum	-9383
urtum	-9384
urzur	-9385
usadd	-9386
utaba	-9387
uthor	-9388
utors	-9389
uttab	-9390
uyers	-9391
uzatt	-9392
uzuwa	-9393
ušhat	-9394
ušuen	-9395
uṣiya	-9396
vaged	-9397
veals	-9398
veled	-9399
Nak	-9400
Nūr	-9401
Zak	-9402
akt	-9403
hāt	-9404
lup	-9405
rāt	-9406
wāt	-9407
ūrī	-9408
▁8.	-9409
▁Na	-9410
▁Ni	-9411
▁Nu	-9412
Qard	-9413
ahuš	-9414
aise	-9415
aked	-9416
akes	-9417
akil	-9418
akri	-9419
aqēp	-9420
ardi	-9421
ardā	-9422
ardī	-9423
arty	-9424
cise	-9425
gers	-9426
hise	-9427
hurp	-9428
impo	-9429
ināt	-9430
ispo	-9431
nger	-9432
oard	-9433
pied	-9434
poil	-9435
reak	-9436
reof	-9437
roof	-9438
urak	-9439
urpo	-9440
wear	-9441
▁1.8	-9442
▁Adū	-9443
▁Idn	-9444
▁Lāl	-9445
▁Nin	-9446
▁Non	-9447
▁spa	-9448
aking	-9449
alawa	-9450
aname	-9451
arded	-9452
ardon	-9453
ardum	-9454
assun	-9455
bling	-9456
eared	-9457
enied	-9458
ickel	-9459
idden	-9460
ieces	-9461
inten	-9462
ndard	-9463
raise	-9464
trave	-9465
verdi	-9466
vings	-9467
warim	-9468
wātim	-9469
zapru	-9470
zizam	-9471
zuwal	-9472
ādiya	-9473
šaddu	-9474
šhara	-9475
ūbiya	-9476
ūriya	-9477
ṭṭara	-9478
▁10.1	-9479
▁10.8	-9480
▁12.8	-9481
▁14.1	-9482
▁16,0	-9483
▁30.8	-9484
▁Adal	-9485
▁Ahun	-9486
▁Ahuš	-9487
▁Ahāt	-9488
▁Akal	-9489
▁Akit	-9490
▁Anun	-9491
▁Atad	-9492
▁Atan	-9493
▁Atat	-9494
▁Burs	-9495
▁Butk	-9496
▁Butq	-9497
▁Char	-9498
▁Comp	-9499
?)<	-9500
XII	-9501
Zub	-9502
bto	-9503
bts	-9504
dub	-9505
ebt	-9506
hub	-9507
hšu	-9508
kšu	-9509
luh	-9510
lšu	-9511
nub	-9512
pru	-9513
sub	-9514
ubt	-9515
ubā	-9516
ubī	-9517
ulā	-9518
uys	-9519
zub	-9520
zul	-9521
āšu	-9522
šua	-9523
šuw	-9524
šuš	-9525
ūšu	-9526
Ṣul	-9527
0.66	-9528
2.66	-9529
3.66	-9530
7.66	-9531
ague	-9532
alue	-9533
azuz	-9534
inue	-9535
ubar	-9536
ubis	-9537
ubit	-9538
ubum	-9539
ulay	-9540
uler	-9541
ulit	-9542
ulur	-9543
umul	-9544
uṣua	-9545
ēlul	-9546
šuah	-9547
šuan	-9548
šuga	-9549
šuwa	-9550
▁Aka	-9551
▁Bub	-9552
▁Err	-9553
▁Irn	-9554
▁fue	-9555
▁peo	-9556
33.66	-9557
ounta	-9558
pened	-9559
pense	-9560
resul	-9561
ripen	-9562
sives	-9563
ubazi	-9564
ulina	-9565
šunum	-9566
▁0.66	-9567
▁1.66	-9568
▁2.66	-9569
▁3.66	-9570
▁Dadā	-9571
▁Damq	-9572
▁Dema	-9573
▁Dunn	-9574
▁Elab	-9575
▁Emen	-9576
▁Empt	-9577
▁Erun	-9578
▁Forw	-9579
▁Hadī	-9580
▁Idid	-9581
▁Ilal	-9582
▁Impo	-9583
▁Issū	-9584
▁Isuh	-9585
▁Išta	-9586
▁Kara	-9587
▁Kask	-9588
▁Kurb	-9589
▁Libb	-9590
▁List	-9591
▁Luhr	-9592
▁Nann	-9593
▁Narā	-9594
▁Nikk	-9595
▁Noth	-9596
▁Park	-9597
▁Prov	-9598
▁Qaqq	-9599
8.8	-9600
Taš	-9601
ašr	-9602
ašt	-9603
cul	-9604
equ	-9605
gul	-9606
nāt	-9607
oks	-9608
pec	-9609
que	-9610
sul	-9611
twe	-9612
ulf	-9613
šaš	-9614
ūnu	-9615
ṣul	-9616
▁68	-9617
▁Ye	-9618
8.66	-9619
alaš	-9620
annā	-9621
ašal	-9622
ašan	-9623
ašat	-9624
ašid	-9625
bled	-9626
btor	-9627
emal	-9628
enqu	-9629
epri	-9630
ikaš	-9631
imaš	-9632
lfil	-9633
mali	-9634
neys	-9635
pili	-9636
prov	-9637
ruct	-9638
swer	-9639
ucts	-9640
udan	-9641
ulat	-9642
vage	-9643
▁15.	-9644
▁150	-9645
▁Išā	-9646
antor	-9647
ašabi	-9648
ickle	-9649
imaši	-9650
inanā	-9651
išara	-9652
nduct	-9653
nment	-9654
ormal	-9655
ountr	-9656
ouple	-9657
quent	-9658
qunum	-9659
ractu	-9660
reast	-9661
stuct	-9662
ucted	-9663
ulaya	-9664
ūraya	-9665
▁Anat	-9666
▁Gald	-9667
▁Inqu	-9668
▁Manu	-9669
▁Real	-9670
▁Sett	-9671
▁Siku	-9672
▁Suet	-9673
▁Suey	-9674
▁Suku	-9675
▁Tarh	-9676
▁Tarī	-9677
▁Tašm	-9678
▁Toge	-9679
▁Tuht	-9680
▁Tuku	-9681
▁Umma	-9682
▁Usub	-9683
▁Uzin	-9684
▁Ušin	-9685
▁Walh	-9686
▁Youp	-9687
▁affa	-9688
▁agre	-9689
▁alah	-9690
▁alon	-9691
▁annu	-9692
▁arou	-9693
▁atte	-9694
▁besm	-9695
▁boil	-9696
▁carn	-9697
▁carr	-9698
▁cart	-9699
2.8	-9700
Nun	-9701
Ret	-9702
eks	-9703
etw	-9704
eys	-9705
get	-9706
lul	-9707
pok	-9708
soe	-9709
uet	-9710
uey	-9711
šet	-9712
Open	-9713
ansf	-9714
ansl	-9715
ansm	-9716
ansp	-9717
avan	-9718
ekal	-9719
ersh	-9720
etur	-9721
evan	-9722
fitt	-9723
huna	-9724
hāra	-9725
ilet	-9726
imiš	-9727
isāb	-9728
itti	-9729
ittl	-9730
mitt	-9731
nown	-9732
oans	-9733
oked	-9734
reet	-9735
ritt	-9736
udun	-9737
uitt	-9738
unum	-9739
vanc	-9740
ēlāt	-9741
ēpum	-9742
ūnum	-9743
▁Asu	-9744
▁Tup	-9745
▁nib	-9746
dered	-9747
eking	-9748
erday	-9749
ervan	-9750
eting	-9751
etter	-9752
fered	-9753
innum	-9754
ittan	-9755
kunum	-9756
numma	-9757
oking	-9758
onymy	-9759
pered	-9760
umnum	-9761
ṣrann	-9762
▁0.5(	-9763
▁6.66	-9764
▁Asan	-9765
▁Kani	-9766
▁Sahr	-9767
▁actu	-9768
▁chaf	-9769
▁chas	-9770
▁chea	-9771
▁chil	-9772
▁chos	-9773
▁clem	-9774
▁coff	-9775
▁comb	-9776
▁dire	-9777
▁disa	-9778
▁disd	-9779
▁disr	-9780
▁doub	-9781
▁effe	-9782
▁emas	-9783
▁empt	-9784
▁esca	-9785
▁este	-9786
▁estr	-9787
▁evid	-9788
▁exec	-9789
▁extr	-9790
▁fodd	-9791
▁foll	-9792
▁guid	-9793
▁habu	-9794
▁hadā	-9795
▁hadī	-9796
▁hanā	-9797
▁hars	-9798
▁harz	-9799
Hub	-9800
kun	-9801
olk	-9802
Gate	-9803
ache	-9804
ands	-9805
anti	-9806
assā	-9807
atem	-9808
atuw	-9809
bout	-9810
cate	-9811
enem	-9812
igur	-9813
irel	-9814
iscl	-9815
keys	-9816
kupp	-9817
lass	-9818
mass	-9819
nate	-9820
ndic	-9821
rass	-9822
sand	-9823
uate	-9824
udāt	-9825
šnum	-9826
▁Abd	-9827
▁Abe	-9828
▁Kuš	-9829
▁Zab	-9830
▁abo	-9831
▁abs	-9832
▁abu	-9833
abazu	-9834
andal	-9835
assat	-9836
assit	-9837
assur	-9838
assut	-9839
atard	-9840
efore	-9841
enass	-9842
enate	-9843
erali	-9844
erate	-9845
erred	-9846
forem	-9847
hatso	-9848
idate	-9849
ispos	-9850
itate	-9851
quest	-9852
riate	-9853
roves	-9854
ēliya	-9855
▁Abab	-9856
▁Abad	-9857
▁Abas	-9858
▁Abat	-9859
▁Abil	-9860
▁Abou	-9861
▁Alil	-9862
▁Alit	-9863
▁Inan	-9864
▁Inst	-9865
▁Kanw	-9866
▁Kass	-9867
▁Kuku	-9868
▁Kuli	-9869
▁Kušš	-9870
▁abro	-9871
▁abus	-9872
▁boot	-9873
▁enti	-9874
▁hatt	-9875
▁heav	-9876
▁hunn	-9877
▁hurr	-9878
▁hurā	-9879
▁husb	-9880
▁incl	-9881
▁inqu	-9882
▁invo	-9883
▁iste	-9884
▁kašš	-9885
▁lazu	-9886
▁levy	-9887
▁loos	-9888
▁merc	-9889
▁mirr	-9890
▁mult	-9891
▁noon	-9892
▁obta	-9893
▁offe	-9894
▁orig	-9895
▁outw	-9896
▁piri	-9897
▁plac	-9898
▁plan	-9899
Nik	-9900
Zik	-9901
how	-9902
iba	-9903
ikt	-9904
iku	-9905
low	-9906
▁	-9907
e	-9908
a	-9909
t	-9910
o	-9911
s	-9912
n	-9913
i	-9914
r	-9915
h	-9916
l	-9917
u	-9918
d	-9919
m	-9920
f	-9921
y	-9922
p	-9923
-	-9924
g	-9925
š	-9926
c	-9927
,	-9928
b	-9929
v	-9930
w	-9931
.	-9932
A	-9933
k	-9934
I	-9935
1	-9936
<	-9937
>	-9938
3	-9939
ā	-9940
Š	-9941
ī	-9942
:	-9943
E	-9944
5	-9945
T	-9946
"	-9947
0	-9948
2	-9949
'	-9950
x	-9951
z	-9952
S	-9953
6	-9954
(	-9955
)	-9956
;	-9957
K	-9958
W	-9959
ē	-9960
ū	-9961
P	-9962
4	-9963
M	-9964
B	-9965
C	-9966
q	-9967
D	-9968
L	-9969
H	-9970
?	-9971
F	-9972
U	-9973
!	-9974
8	-9975
7	-9976
Y	-9977
ṣ	-9978
N	-9979
j	-9980
G	-9981
ṭ	-9982
O	-9983
/	-9984
Z	-9985
9	-9986
R	-9987
Ṣ	-9988
Ṭ	-9989
⁄	-9990
Ā	-9991
ʾ	-9992
V	-9993
Q	-9994
X	-9995
